<unk>	0
<s>	0
</s>	0
▁t	-0
he	-1
▁a	-2
in	-3
▁w	-4
▁s	-5
▁the	-6
ha	-7
re	-8
▁o	-9
ou	-10
nd	-11
er	-12
▁m	-13
is	-14
▁b	-15
▁c	-16
it	-17
▁f	-18
ed	-19
on	-20
en	-21
▁I	-22
▁to	-23
▁of	-24
ing	-25
▁and	-26
▁d	-27
▁“	-28
es	-29
▁ha	-30
▁in	-31
or	-32
▁h	-33
as	-34
ll	-35
▁l	-36
▁p	-37
ar	-38
hat	-39
▁he	-40
an	-41
▁n	-42
▁y	-43
at	-44
om	-45
▁you	-46
ve	-47
▁be	-48
ic	-49
le	-50
ow	-51
▁that	-52
ut	-53
▁u	-54
ot	-55
▁g	-56
▁was	-57
id	-58
▁it	-59
▁e	-60
▁wh	-61
ly	-62
▁th	-63
ld	-64
st	-65
ver	-66
gh	-67
im	-68
.”	-69
▁is	-70
se	-71
▁his	-72
et	-73
▁H	-74
ent	-75
ay	-76
▁re	-77
▁as	-78
ith	-79
ce	-80
▁my	-81
ro	-82
▁we	-83
▁with	-84
ion	-85
ur	-86
▁on	-87
▁have	-88
▁st	-89
▁for	-90
ad	-91
ould	-92
ol	-93
ght	-94
ri	-95
▁had	-96
▁at	-97
▁not	-98
▁T	-99
ich	-100
▁up	-101
her	-102
ct	-103
ir	-104
▁an	-105
▁me	-106
▁which	-107
▁sa	-108
al	-109
▁se	-110
▁S	-111
ck	-112
▁M	-113
ter	-114
oo	-115
ra	-116
▁fr	-117
am	-118
red	-119
▁A	-120
▁so	-121
ke	-122
▁do	-123
▁The	-124
ome	-125
ill	-126
?”	-127
ch	-128
▁him	-129
▁sh	-130
▁from	-131
▁said	-132
very	-133
,”	-134
▁su	-135
ight	-136
▁W	-137
mes	-138
▁but	-139
▁upon	-140
ble	-141
olmes	-142
ess	-143
if	-144
ain	-145
▁Holmes	-146
all	-147
ge	-148
il	-149
▁this	-150
▁whe	-151
▁r	-152
ore	-153
pe	-154
▁her	-155
▁all	-156
▁your	-157
ind	-158
qu	-159
▁man	-160
▁int	-161
ust	-162
ss	-163
▁been	-164
one	-165
▁con	-166
▁k	-167
▁B	-168
▁very	-169
▁out	-170
itt	-171
▁ex	-172
▁see	-173
est	-174
▁de	-175
▁she	-176
▁no	-177
us	-178
▁there	-179
ound	-180
▁are	-181
ell	-182
ul	-183
our	-184
own	-185
▁were	-186
▁by	-187
ard	-188
lo	-189
and	-190
▁one	-191
▁who	-192
▁would	-193
▁ne	-194
out	-195
▁or	-196
▁kn	-197
▁v	-198
▁He	-199
▁It	-200
ked	-201
lf	-202
ast	-203
ist	-204
▁Mr	-205
pp	-206
th	-207
▁po	-208
You	-209
ation	-210
▁le	-211
▁what	-212
ate	-213
▁has	-214
▁could	-215
▁com	-216
▁al	-217
▁wor	-218
▁into	-219
▁when	-220
ive	-221
ood	-222
▁will	-223
ide	-224
▁ab	-225
▁ro	-226
ittle	-227
▁little	-228
▁L	-229
▁fa	-230
▁fe	-231
ers	-232
▁sha	-233
la	-234
ect	-235
un	-236
ant	-237
▁am	-238
▁qu	-239
▁un	-240
▁“‘	-241
▁some	-242
ous	-243
ame	-244
han	-245
▁us	-246
ther	-247
ak	-248
ough	-249
ure	-250
▁any	-251
hed	-252
▁can	-253
ong	-254
▁should	-255
▁C	-256
urn	-257
▁St	-258
▁down	-259
ink	-260
ven	-261
ather	-262
▁then	-263
ep	-264
um	-265
able	-266
▁P	-267
self	-268
▁co	-269
▁hand	-270
The	-271
▁j	-272
▁our	-273
art	-274
ice	-275
▁pro	-276
▁G	-277
▁li	-278
ig	-279
ber	-280
ry	-281
hing	-282
ag	-283
▁tw	-284
▁may	-285
ap	-286
▁over	-287
▁pre	-288
ook	-289
▁ag	-290
▁know	-291
▁how	-292
ite	-293
ack	-294
ime	-295
▁rem	-296
ort	-297
▁im	-298
▁if	-299
ine	-300
fore	-301
▁O	-302
▁other	-303
cc	-304
▁af	-305
ered	-306
▁think	-307
way	-308
▁F	-309
▁lo	-310
ment	-311
ake	-312
ade	-313
wn	-314
ence	-315
.’	-316
ark	-317
▁go	-318
▁more	-319
au	-320
▁‘	-321
▁br	-322
▁cha	-323
▁must	-324
▁than	-325
right	-326
▁shall	-327
ire	-328
orn	-329
▁now	-330
▁before	-331
▁D	-332
ass	-333
ress	-334
▁about	-335
▁R	-336
▁sm	-337
▁ad	-338
ried	-339
▁too	-340
▁cl	-341
▁mat	-342
▁room	-343
ie	-344
ady	-345
ng	-346
ue	-347
pen	-348
ance	-349
▁tr	-350
ally	-351
▁only	-352
▁sp	-353
ved	-354
lock	-355
ond	-356
ere	-357
iss	-358
led	-359
▁door	-360
▁them	-361
▁time	-362
▁en	-363
ever	-364
▁did	-365
▁back	-366
It	-367
ought	-368
▁come	-369
▁came	-370
ise	-371
▁matter	-372
int	-373
▁they	-374
ase	-375
end	-376
▁You	-377
▁str	-378
reat	-379
▁two	-380
▁off	-381
▁thr	-382
nt	-383
ree	-384
▁ob	-385
ouse	-386
pt	-387
ost	-388
▁comp	-389
age	-390
are	-391
ies	-392
ject	-393
ary	-394
ars	-395
▁day	-396
▁dis	-397
ave	-398
ious	-399
▁way	-400
▁gl	-401
ving	-402
!”	-403
ps	-404
▁N	-405
ab	-406
▁mu	-407
▁There	-408
▁imp	-409
ord	-410
▁ar	-411
▁face	-412
ity	-413
▁work	-414
▁after	-415
we	-416
ish	-417
▁good	-418
ced	-419
▁pr	-420
ull	-421
med	-422
▁look	-423
▁much	-424
▁house	-425
▁might	-426
em	-427
ff	-428
▁say	-429
▁wind	-430
▁again	-431
os	-432
ert	-433
▁like	-434
▁fo	-435
▁just	-436
▁per	-437
▁found	-438
▁ey	-439
reet	-440
▁und	-441
ang	-442
ife	-443
man	-444
▁wr	-445
▁open	-446
▁heard	-447
▁bet	-448
el	-449
And	-450
son	-451
▁such	-452
ose	-453
▁case	-454
ft	-455
▁own	-456
▁made	-457
▁where	-458
od	-459
▁E	-460
▁tra	-461
▁away	-462
▁pass	-463
ward	-464
▁cle	-465
,’	-466
ves	-467
▁But	-468
▁let	-469
▁J	-470
Yes	-471
orning	-472
▁right	-473
ac	-474
ud	-475
▁bl	-476
▁every	-477
▁even	-478
▁under	-479
▁pl	-480
▁har	-481
ple	-482
▁cr	-483
▁sc	-484
▁fir	-485
bt	-486
ne	-487
ank	-488
▁ch	-489
▁sl	-490
▁fri	-491
▁ret	-492
▁here	-493
▁long	-494
▁tell	-495
▁morning	-496
▁friend	-497
▁however	-498
ick	-499
▁ke	-500
ened	-501
ount	-502
▁turn	-503
herlock	-504
▁window	-505
▁ind	-506
▁well	-507
▁their	-508
▁Sherlock	-509
ile	-510
uten	-511
▁exp	-512
▁side	-513
gg	-514
ssi	-515
▁ap	-516
berg	-517
▁dou	-518
▁never	-519
utenberg	-520
▁ye	-521
▁find	-522
▁last	-523
▁most	-524
anc	-525
ily	-526
ated	-527
pect	-528
▁through	-529
air	-530
▁gr	-531
ings	-532
ness	-533
▁And	-534
▁bus	-535
▁left	-536
his	-537
▁nothing	-538
▁We	-539
▁Wat	-540
▁saw	-541
▁quite	-542
▁thought	-543
co	-544
ult	-545
▁asked	-546
▁pap	-547
▁eyes	-548
▁word	-549
▁night	-550
?’	-551
▁1	-552
ach	-553
▁wa	-554
▁Pro	-555
▁took	-556
▁la	-557
▁sec	-558
iness	-559
▁hard	-560
▁first	-561
▁Gutenberg	-562
me	-563
hes	-564
ial	-565
▁ho	-566
Well	-567
▁She	-568
▁once	-569
▁small	-570
▁young	-571
ign	-572
▁car	-573
▁its	-574
▁head	-575
▁pres	-576
▁light	-577
ared	-578
▁ent	-579
▁part	-580
▁father	-581
ms	-582
▁pe	-583
ions	-584
▁wom	-585
▁point	-586
▁pla	-587
▁cont	-588
▁round	-589
▁Watson	-590
▁Project	-591
sw	-592
▁bo	-593
▁end	-594
▁few	-595
▁Miss	-596
▁Then	-597
▁cons	-598
▁inst	-599
ertain	-600
▁without	-601
so	-602
ty	-603
ful	-604
omet	-605
▁acc	-606
▁mar	-607
▁put	-608
But	-609
▁att	-610
▁old	-611
▁res	-612
▁answ	-613
▁call	-614
▁take	-615
▁hands	-616
▁myself	-617
mer	-618
▁unt	-619
▁make	-620
▁doubt	-621
hen	-622
▁kne	-623
▁met	-624
▁yet	-625
erest	-626
▁business	-627
▁interest	-628
No	-629
ery	-630
less	-631
room	-632
other	-633
▁lady	-634
▁until	-635
▁woman	-636
Oh	-637
ath	-638
vent	-639
thing	-640
▁appe	-641
▁these	-642
▁return	-643
▁himself	-644
▁As	-645
What	-646
▁comm	-647
▁seen	-648
▁somet	-649
av	-650
ute	-651
▁In	-652
▁ac	-653
▁ra	-654
▁sat	-655
▁step	-656
▁still	-657
▁K	-658
den	-659
ont	-660
▁des	-661
▁dra	-662
▁set	-663
▁cour	-664
▁ever	-665
owed	-666
▁dist	-667
▁great	-668
lp	-669
ied	-670
iet	-671
ined	-672
pped	-673
▁cor	-674
▁went	-675
▁cried	-676
▁seemed	-677
lic	-678
ract	-679
▁far	-680
▁get	-681
▁inc	-682
▁new	-683
▁wait	-684
▁If	-685
ason	-686
▁ser	-687
▁sir	-688
▁done	-689
▁clear	-690
▁three	-691
▁years	-692
eed	-693
les	-694
ory	-695
▁min	-696
▁possi	-697
alk	-698
▁loo	-699
arked	-700
▁fact	-701
▁gent	-702
▁dress	-703
▁while	-704
▁remarked	-705
haps	-706
▁bec	-707
▁bed	-708
▁bel	-709
ction	-710
▁rather	-711
▁something	-712
ek	-713
ub	-714
oth	-715
ser	-716
▁Ro	-717
ient	-718
▁occ	-719
▁name	-720
der	-721
ott	-722
▁fl	-723
▁det	-724
▁pol	-725
▁conf	-726
▁mind	-727
▁chair	-728
▁those	-729
▁Street	-730
▁though	-731
uc	-732
ild	-733
rew	-734
ange	-735
arth	-736
ween	-737
▁clo	-738
▁half	-739
▁wife	-740
▁course	-741
vid	-742
ways	-743
▁ins	-744
▁foll	-745
▁help	-746
ph	-747
igh	-748
not	-749
oke	-750
ret	-751
▁ass	-752
▁spe	-753
▁quest	-754
▁enough	-755
▁having	-756
TM	-757
rib	-758
▁beg	-759
▁dro	-760
▁ter	-761
ained	-762
ushed	-763
▁give	-764
▁knew	-765
▁obser	-766
▁always	-767
▁gentle	-768
▁gi	-769
Then	-770
▁bla	-771
▁sil	-772
▁dark	-773
▁same	-774
▁between	-775
▁answered	-776
▁GutenbergTM	-777
og	-778
sh	-779
▁My	-780
ctor	-781
dden	-782
ised	-783
ular	-784
▁bre	-785
▁vis	-786
ition	-787
▁hour	-788
▁cannot	-789
▁compan	-790
▁letter	-791
▁reason	-792
▁certain	-793
▁_	-794
ans	-795
for	-796
ross	-797
▁rep	-798
ature	-799
▁home	-800
▁police	-801
▁underst	-802
ail	-803
That	-804
oner	-805
▁got	-806
▁sur	-807
▁tak	-808
erson	-809
ither	-810
▁also	-811
▁fell	-812
▁sudden	-813
▁against	-814
te	-815
arn	-816
▁Do	-817
ense	-818
▁abs	-819
▁hur	-820
▁sin	-821
▁son	-822
▁This	-823
▁exam	-824
▁happ	-825
▁sing	-826
▁black	-827
▁place	-828
ip	-829
und	-830
raph	-831
▁che	-832
▁lau	-833
▁lay	-834
▁use	-835
ished	-836
ister	-837
owing	-838
▁chan	-839
▁dear	-840
▁count	-841
▁front	-842
▁start	-843
▁looked	-844
▁turned	-845
▁anything	-846
▁understand	-847
ee	-848
▁Y	-849
iff	-850
▁Fr	-851
hind	-852
▁His	-853
▁ext	-854
▁lar	-855
▁told	-856
▁visit	-857
▁hardly	-858
▁brought	-859
▁possible	-860
He	-861
ia	-862
ix	-863
aid	-864
get	-865
uck	-866
▁sw	-867
oney	-868
▁Now	-869
▁adv	-870
▁app	-871
▁col	-872
▁hor	-873
▁ref	-874
riage	-875
▁What	-876
▁fire	-877
▁life	-878
▁read	-879
▁sure	-880
▁behind	-881
▁better	-882
▁U	-883
day	-884
ause	-885
ched	-886
here	-887
ider	-888
▁bro	-889
▁cop	-890
▁hat	-891
ready	-892
▁That	-893
▁sign	-894
▁want	-895
▁within	-896
▁instant	-897
no	-898
amp	-899
per	-900
row	-901
land	-902
▁fam	-903
▁rec	-904
▁red	-905
There	-906
▁leave	-907
▁money	-908
▁thing	-909
▁really	-910
▁already	-911
▁question	-912
Wh	-913
att	-914
ird	-915
utes	-916
▁add	-917
▁cur	-918
ently	-919
olute	-920
▁deep	-921
▁gave	-922
▁words	-923
▁indeed	-924
▁strong	-925
▁minutes	-926
▁strange	-927
▁consider	-928
▁gentleman	-929
▁el	-930
aker	-931
ling	-932
aught	-933
orner	-934
▁days	-935
▁hair	-936
▁week	-937
▁wish	-938
ations	-939
▁being	-940
▁belie	-941
▁break	-942
▁whole	-943
▁papers	-944
▁V	-945
ash	-946
ner	-947
▁Ar	-948
▁Mc	-949
airs	-950
ates	-951
ical	-952
▁ele	-953
▁exc	-954
▁four	-955
▁heav	-956
▁near	-957
▁perhaps	-958
My	-959
ens	-960
old	-961
ove	-962
▁Br	-963
▁ask	-964
▁don	-965
night	-966
uring	-967
▁diff	-968
▁supp	-969
▁table	-970
!’	-971
li	-972
▁em	-973
imes	-974
ured	-975
ying	-976
▁McC	-977
▁dri	-978
▁eas	-979
▁mom	-980
ondon	-981
▁conc	-982
▁expl	-983
▁fore	-984
▁Baker	-985
▁paper	-986
▁London	-987
▁moment	-988
▁remark	-989
▁looking	-990
▁whether	-991
▁yourself	-992
ces	-993
ron	-994
ted	-995
ual	-996
rade	-997
ully	-998
▁Ruc	-999
▁wat	-1000
vious	-1001
▁both	-1002
▁exce	-1003
▁gone	-1004
▁heart	-1005
▁quiet	-1006
▁Rucast	-1007
▁passed	-1008
▁another	-1009
▁country	-1010
00	-1011
lt	-1012
fect	-1013
▁sle	-1014
arthy	-1015
▁When	-1016
▁many	-1017
ention	-1018
▁McCarthy	-1019
pr	-1020
ged	-1021
▁1.	-1022
ably	-1023
cket	-1024
imon	-1025
ited	-1026
ning	-1027
▁Mrs	-1028
▁unc	-1029
▁why	-1030
▁soon	-1031
▁whom	-1032
ession	-1033
▁Simon	-1034
▁large	-1035
▁stand	-1036
▁person	-1037
HE	-1038
ray	-1039
▁eff	-1040
aring	-1041
wards	-1042
▁Lest	-1043
▁care	-1044
▁keep	-1045
▁kind	-1046
▁less	-1047
▁prom	-1048
▁since	-1049
▁sound	-1050
▁Lestrade	-1051
xt	-1052
ict	-1053
▁fre	-1054
▁men	-1055
▁sol	-1056
▁Lord	-1057
▁dire	-1058
▁does	-1059
▁wood	-1060
▁Rucastle	-1061
▁absolute	-1062
▁suddenly	-1063
ru	-1064
▁£	-1065
rey	-1066
sel	-1067
▁pi	-1068
▁sn	-1069
cked	-1070
ding	-1071
form	-1072
read	-1073
side	-1074
▁cab	-1075
▁inv	-1076
▁law	-1077
ience	-1078
ronic	-1079
▁They	-1080
▁note	-1081
itting	-1082
▁least	-1083
▁across	-1084
▁import	-1085
▁present	-1086
▁returned	-1087
sp	-1088
sha	-1089
▁At	-1090
▁On	-1091
▁To	-1092
aged	-1093
ream	-1094
that	-1095
▁spr	-1096
alked	-1097
▁char	-1098
▁feel	-1099
▁late	-1100
▁rece	-1101
▁save	-1102
▁facts	-1103
▁state	-1104
▁stood	-1105
▁story	-1106
▁fellow	-1107
▁opened	-1108
▁believe	-1109
▁evening	-1110
ken	-1111
▁op	-1112
▁ph	-1113
This	-1114
used	-1115
▁Eng	-1116
▁act	-1117
anger	-1118
iling	-1119
oured	-1120
▁draw	-1121
▁hope	-1122
▁miss	-1123
gether	-1124
▁client	-1125
▁during	-1126
▁either	-1127
▁sister	-1128
▁street	-1129
▁waiting	-1130
▁together	-1131
▁companion	-1132
inc	-1133
ped	-1134
▁An	-1135
▁gu	-1136
▁pa	-1137
ster	-1138
▁eng	-1139
▁fin	-1140
▁mon	-1141
▁saf	-1142
▁sim	-1143
▁yes	-1144
clock	-1145
ution	-1146
▁five	-1147
▁full	-1148
▁hear	-1149
▁used	-1150
ograph	-1151
▁among	-1152
▁elect	-1153
▁given	-1154
▁surpr	-1155
▁ground	-1156
▁rushed	-1157
▁entered	-1158
▁sitting	-1159
▁singular	-1160
yl	-1161
iar	-1162
ler	-1163
uff	-1164
▁Wh	-1165
head	-1166
oose	-1167
ting	-1168
vert	-1169
▁bra	-1170
▁flo	-1171
▁pur	-1172
▁sit	-1173
▁ten	-1174
ating	-1175
fully	-1176
ident	-1177
vered	-1178
▁copy	-1179
▁each	-1180
▁else	-1181
▁evid	-1182
▁felt	-1183
▁foot	-1184
▁laid	-1185
▁list	-1186
▁walk	-1187
▁death	-1188
▁white	-1189
▁works	-1190
▁assist	-1191
▁corner	-1192
▁forward	-1193
▁obvious	-1194
▁certainly	-1195
fa	-1196
iz	-1197
arm	-1198
use	-1199
fort	-1200
ired	-1201
▁cry	-1202
▁cut	-1203
▁hus	-1204
▁mad	-1205
▁run	-1206
ering	-1207
itten	-1208
▁able	-1209
▁best	-1210
▁fing	-1211
▁imag	-1212
▁inqu	-1213
▁prof	-1214
▁rest	-1215
▁crime	-1216
▁going	-1217
▁occur	-1218
▁stone	-1219
▁became	-1220
▁contin	-1221
▁pocket	-1222
▁address	-1223
▁visitor	-1224
We	-1225
edu	-1226
ody	-1227
▁mo	-1228
ague	-1229
▁arm	-1230
▁par	-1231
▁pos	-1232
ached	-1233
ining	-1234
veral	-1235
▁dead	-1236
▁dedu	-1237
▁form	-1238
▁need	-1239
▁prob	-1240
▁talk	-1241
▁child	-1242
▁floor	-1243
▁quick	-1244
▁remem	-1245
▁short	-1246
▁family	-1247
▁second	-1248
▁several	-1249
be	-1250
of	-1251
up	-1252
Not	-1253
Why	-1254
ane	-1255
ene	-1256
ger	-1257
its	-1258
ror	-1259
umb	-1260
▁Dr	-1261
▁ga	-1262
ases	-1263
band	-1264
gged	-1265
onel	-1266
ople	-1267
▁How	-1268
▁led	-1269
▁low	-1270
▁mur	-1271
▁nar	-1272
▁pay	-1273
▁ran	-1274
ublic	-1275
▁fear	-1276
▁high	-1277
▁true	-1278
pector	-1279
▁heavy	-1280
▁seven	-1281
▁threw	-1282
▁anyone	-1283
▁things	-1284
▁electronic	-1285
cul	-1286
ead	-1287
ier	-1288
irl	-1289
ows	-1290
sed	-1291
▁bu	-1292
▁ed	-1293
ames	-1294
atur	-1295
enty	-1296
iece	-1297
king	-1298
▁ago	-1299
▁eye	-1300
▁inf	-1301
▁lat	-1302
▁sub	-1303
ative	-1304
ggest	-1305
inary	-1306
rible	-1307
ually	-1308
▁With	-1309
▁feet	-1310
▁land	-1311
▁sent	-1312
racter	-1313
selves	-1314
▁seems	-1315
▁taken	-1316
▁advert	-1317
▁manner	-1318
▁proble	-1319
▁walked	-1320
otograph	-1321
▁husband	-1322
▁imagine	-1323
▁suggest	-1324
bo	-1325
oh	-1326
▁2	-1327
cha	-1328
ots	-1329
oud	-1330
riv	-1331
ton	-1332
ung	-1333
you	-1334
▁Bo	-1335
ived	-1336
lair	-1337
lled	-1338
onet	-1339
▁For	-1340
▁God	-1341
▁aff	-1342
▁gra	-1343
▁ide	-1344
▁mak	-1345
▁ste	-1346
▁sto	-1347
aster	-1348
icult	-1349
itted	-1350
ption	-1351
▁bird	-1352
▁disc	-1353
▁free	-1354
▁girl	-1355
▁lost	-1356
▁maid	-1357
▁mean	-1358
▁reco	-1359
▁year	-1360
▁Clair	-1361
▁alone	-1362
▁bring	-1363
▁glanc	-1364
▁goose	-1365
▁rooms	-1366
▁spoke	-1367
ression	-1368
▁coming	-1369
▁danger	-1370
▁people	-1371
▁hurried	-1372
▁appeared	-1373
▁character	-1374
▁photograph	-1375
Ah	-1376
by	-1377
ib	-1378
aut	-1379
iew	-1380
irc	-1381
ohn	-1382
pos	-1383
vil	-1384
yed	-1385
▁Ne	-1386
▁aw	-1387
▁sk	-1388
ener	-1389
▁THE	-1390
▁air	-1391
▁bar	-1392
▁bes	-1393
▁ear	-1394
▁ple	-1395
cious	-1396
ments	-1397
othes	-1398
▁bank	-1399
▁cold	-1400
▁easy	-1401
▁fort	-1402
▁held	-1403
▁quar	-1404
▁road	-1405
▁rose	-1406
▁succ	-1407
▁whis	-1408
▁wond	-1409
arance	-1410
▁agree	-1411
▁drove	-1412
▁sleep	-1413
▁Doctor	-1414
▁bright	-1415
▁called	-1416
▁detail	-1417
▁public	-1418
▁result	-1419
▁secret	-1420
▁letters	-1421
▁windows	-1422
▁marriage	-1423
ys	-1424
How	-1425
but	-1426
com	-1427
nce	-1428
the	-1429
▁Ad	-1430
▁ce	-1431
▁te	-1432
▁vo	-1433
empt	-1434
laim	-1435
most	-1436
oran	-1437
▁One	-1438
▁lim	-1439
▁reg	-1440
▁sho	-1441
▁six	-1442
anced	-1443
quare	-1444
rying	-1445
umber	-1446
▁John	-1447
▁bell	-1448
▁grey	-1449
▁mark	-1450
▁mine	-1451
▁safe	-1452
▁writ	-1453
ection	-1454
▁above	-1455
▁began	-1456
▁close	-1457
▁event	-1458
▁laugh	-1459
▁steps	-1460
aughter	-1461
▁common	-1462
▁office	-1463
▁coronet	-1464
▁followed	-1465
▁difficult	-1466
▁profession	-1467
In	-1468
aj	-1469
cy	-1470
pl	-1471
iol	-1472
ley	-1473
mor	-1474
rop	-1475
Very	-1476
ancy	-1477
arch	-1478
fast	-1479
ible	-1480
lace	-1481
mber	-1482
oint	-1483
ones	-1484
▁fig	-1485
▁mid	-1486
▁sum	-1487
ising	-1488
utter	-1489
▁King	-1490
▁Turn	-1491
▁fall	-1492
▁keen	-1493
▁lamp	-1494
▁past	-1495
▁shar	-1496
▁slow	-1497
▁vill	-1498
ashion	-1499
▁Found	-1500
▁beaut	-1501
▁cases	-1502
▁known	-1503
▁ready	-1504
▁speak	-1505
▁chance	-1506
▁comple	-1507
▁effect	-1508
▁expect	-1509
▁likely	-1510
▁struck	-1511
▁account	-1512
▁married	-1513
▁outside	-1514
▁silence	-1515
▁started	-1516
▁remember	-1517
▁attention	-1518
▁Foundation	-1519
▁absolutely	-1520
EN	-1521
ax	-1522
du	-1523
act	-1524
erm	-1525
ian	-1526
rif	-1527
uth	-1528
▁Sc	-1529
▁ca	-1530
Your	-1531
aint	-1532
ches	-1533
iety	-1534
mark	-1535
thur	-1536
▁Wil	-1537
▁gri	-1538
▁hum	-1539
▁lad	-1540
▁mil	-1541
▁nor	-1542
osmer	-1543
unate	-1544
ylott	-1545
▁Here	-1546
▁Wind	-1547
▁Your	-1548
▁blue	-1549
▁cent	-1550
▁conv	-1551
▁idea	-1552
▁love	-1553
▁mere	-1554
▁none	-1555
▁sort	-1556
▁town	-1557
▁wall	-1558
father	-1559
▁learn	-1560
▁offic	-1561
▁press	-1562
▁terms	-1563
▁beside	-1564
▁figure	-1565
▁nature	-1566
▁sprang	-1567
▁Roylott	-1568
▁dressed	-1569
▁passage	-1570
▁serious	-1571
▁success	-1572
▁glancing	-1573
▁happened	-1574
▁standing	-1575
▁advertise	-1576
▁breakfast	-1577
▁inspector	-1578
▁considerable	-1579
bed	-1580
erg	-1581
noc	-1582
rid	-1583
ush	-1584
▁Ch	-1585
▁So	-1586
▁es	-1587
ains	-1588
ased	-1589
ille	-1590
irty	-1591
raid	-1592
▁Maj	-1593
▁box	-1594
▁cig	-1595
▁hot	-1596
▁swe	-1597
▁wed	-1598
chair	-1599
meric	-1600
▁circ	-1601
▁coll	-1602
▁gold	-1603
▁next	-1604
▁prot	-1605
▁pull	-1606
▁real	-1607
▁thin	-1608
culiar	-1609
undred	-1610
▁cause	-1611
▁drawn	-1612
▁exper	-1613
▁glass	-1614
▁innoc	-1615
▁means	-1616
▁train	-1617
▁trust	-1618
venture	-1619
▁Hosmer	-1620
▁Turner	-1621
▁closed	-1622
▁determ	-1623
▁carried	-1624
▁distrib	-1625
▁glanced	-1626
▁written	-1627
▁carriage	-1628
▁daughter	-1629
▁observed	-1630
▁occurred	-1631
▁position	-1632
If	-1633
ci	-1634
gel	-1635
ief	-1636
lor	-1637
lud	-1638
lus	-1639
ons	-1640
ume	-1641
une	-1642
▁Th	-1643
▁jo	-1644
They	-1645
ager	-1646
ards	-1647
coat	-1648
ghed	-1649
ides	-1650
iled	-1651
iter	-1652
▁bur	-1653
▁cap	-1654
▁cou	-1655
▁def	-1656
▁leg	-1657
▁pen	-1658
▁pow	-1659
▁sun	-1660
▁tre	-1661
stery	-1662
▁Mary	-1663
▁body	-1664
▁coat	-1665
▁desc	-1666
▁meet	-1667
▁poor	-1668
▁serv	-1669
▁viol	-1670
ission	-1671
▁Angel	-1672
▁James	-1673
▁broad	-1674
▁doing	-1675
▁dread	-1676
▁extra	-1677
▁order	-1678
▁pract	-1679
▁sight	-1680
▁whose	-1681
▁Arthur	-1682
▁Wilson	-1683
▁afraid	-1684
▁invest	-1685
▁mother	-1686
▁object	-1687
▁points	-1688
▁bedroom	-1689
▁fashion	-1690
▁feature	-1691
▁hundred	-1692
▁problem	-1693
▁wedding	-1694
▁peculiar	-1695
▁stepfather	-1696
▁interesting	-1697
Qu	-1698
▁(	-1699
▁’	-1700
ees	-1701
ham	-1702
ins	-1703
ney	-1704
ren	-1705
res	-1706
ump	-1707
▁Le	-1708
▁Un	-1709
▁ve	-1710
Pray	-1711
appe	-1712
bour	-1713
inal	-1714
inct	-1715
shaw	-1716
well	-1717
▁All	-1718
▁den	-1719
▁glo	-1720
▁ord	-1721
▁sli	-1722
▁val	-1723
ashed	-1724
aving	-1725
ibank	-1726
inion	-1727
light	-1728
older	-1729
pping	-1730
unter	-1731
ville	-1732
▁cond	-1733
▁hold	-1734
▁shad	-1735
▁stri	-1736
▁trou	-1737
▁vent	-1738
▁view	-1739
▁blood	-1740
▁hours	-1741
▁month	-1742
▁plain	-1743
▁sharp	-1744
▁shown	-1745
▁voice	-1746
attered	-1747
▁Americ	-1748
▁almost	-1749
▁caught	-1750
▁colour	-1751
▁seeing	-1752
▁showed	-1753
▁wonder	-1754
▁England	-1755
▁confess	-1756
▁disappe	-1757
▁laughed	-1758
▁matters	-1759
▁mystery	-1760
▁opinion	-1761
▁quietly	-1762
▁towards	-1763
▁Windibank	-1764
▁important	-1765
▁ourselves	-1766
▁everything	-1767
▁remarkable	-1768
▁advertisement	-1769
bs	-1770
to	-1771
ern	-1772
ift	-1773
ker	-1774
ote	-1775
ued	-1776
▁Co	-1777
▁No	-1778
▁OF	-1779
▁dr	-1780
▁hy	-1781
▁sy	-1782
cept	-1783
cess	-1784
cise	-1785
hank	-1786
outh	-1787
pend	-1788
tern	-1789
▁cra	-1790
▁inj	-1791
▁lod	-1792
▁ner	-1793
▁pat	-1794
▁van	-1795
asion	-1796
irely	-1797
llent	-1798
tered	-1799
▁Well	-1800
▁conn	-1801
▁deal	-1802
▁furn	-1803
▁line	-1804
▁pipe	-1805
▁post	-1806
▁prop	-1807
▁sett	-1808
▁yell	-1809
▁disco	-1810
▁fresh	-1811
▁gener	-1812
▁inter	-1813
▁neigh	-1814
▁water	-1815
▁wrong	-1816
ination	-1817
▁Hunter	-1818
▁Stoner	-1819
▁advice	-1820
▁charge	-1821
▁others	-1822
▁partic	-1823
▁placed	-1824
▁silent	-1825
▁simple	-1826
▁single	-1827
▁slight	-1828
ordinary	-1829
▁attempt	-1830
▁clothes	-1831
▁details	-1832
▁observe	-1833
▁perfect	-1834
▁reached	-1835
▁station	-1836
▁occasion	-1837
▁received	-1838
▁direction	-1839
▁neighbour	-1840
▁experience	-1841
▁extraordinary	-1842
Do	-1843
Mr	-1844
On	-1845
RE	-1846
ls	-1847
zz	-1848
asc	-1849
ium	-1850
ony	-1851
ool	-1852
plo	-1853
▁ru	-1854
Book	-1855
ator	-1856
ceed	-1857
esty	-1858
ller	-1859
rene	-1860
rest	-1861
velo	-1862
vers	-1863
▁adm	-1864
▁boy	-1865
▁gas	-1866
▁med	-1867
▁rel	-1868
arden	-1869
ility	-1870
pered	-1871
rived	-1872
▁band	-1873
▁cell	-1874
▁glad	-1875
▁lips	-1876
▁mach	-1877
▁news	-1878
▁play	-1879
▁tall	-1880
headed	-1881
morrow	-1882
stairs	-1883
▁Frank	-1884
▁along	-1885
▁contr	-1886
▁corre	-1887
▁happy	-1888
▁uncle	-1889
▁world	-1890
▁Hather	-1891
▁Holder	-1892
▁States	-1893
▁finger	-1894
▁itself	-1895
▁locked	-1896
▁slowly	-1897
▁twenty	-1898
▁Majesty	-1899
▁Neville	-1900
▁appears	-1901
▁conclus	-1902
▁differe	-1903
▁explain	-1904
▁suppose	-1905
▁laughing	-1906
▁listened	-1907
▁remained	-1908
▁Hatherley	-1909
▁copyright	-1910
▁afterwards	-1911
ER	-1912
iv	-1913
wr	-1914
hem	-1915
▁By	-1916
▁ty	-1917
When	-1918
eese	-1919
ford	-1920
ield	-1921
noon	-1922
pper	-1923
▁ang	-1924
▁art	-1925
▁bad	-1926
▁dut	-1927
▁esc	-1928
▁fro	-1929
▁fur	-1930
▁hab	-1931
▁key	-1932
▁soc	-1933
▁won	-1934
Quite	-1935
Thank	-1936
icked	-1937
ledge	-1938
▁Open	-1939
▁drew	-1940
▁lead	-1941
▁mist	-1942
▁pain	-1943
▁prov	-1944
▁ring	-1945
▁seem	-1946
▁stra	-1947
agraph	-1948
icense	-1949
▁appro	-1950
▁brown	-1951
▁creat	-1952
▁drive	-1953
▁eBook	-1954
▁emplo	-1955
▁geese	-1956
▁miles	-1957
▁natur	-1958
▁thick	-1959
▁weeks	-1960
▁change	-1961
▁doctor	-1962
▁fright	-1963
▁glance	-1964
▁pulled	-1965
▁feeling	-1966
▁quarter	-1967
▁someone	-1968
▁complete	-1969
▁dreadful	-1970
▁innocent	-1971
▁investig	-1972
▁agreement	-1973
▁instantly	-1974
▁paragraph	-1975
▁surprised	-1976
AR	-1977
_,	-1978
mb	-1979
—”	-1980
Now	-1981
ask	-1982
eav	-1983
els	-1984
eor	-1985
hod	-1986
men	-1987
oul	-1988
ral	-1989
vel	-1990
▁Al	-1991
▁Of	-1992
▁Oh	-1993
▁Tw	-1994
▁je	-1995
Here	-1996
ages	-1997
ison	-1998
lish	-1999
ossi	-2000
reme	-2001
soci	-2002
spic	-2003
urch	-2004
▁Ger	-2005
▁Let	-2006
▁ast	-2007
▁cat	-2008
▁dev	-2009
▁dog	-2010
▁equ	-2011
▁est	-2012
▁ill	-2013
▁tou	-2014
asant	-2015
asure	-2016
ected	-2017
inted	-2018
ndeed	-2019
▁City	-2020
▁Geor	-2021
▁acqu	-2022
▁earn	-2023
▁lock	-2024
▁narr	-2025
▁pale	-2026
▁requ	-2027
▁send	-2028
▁show	-2029
▁suff	-2030
▁type	-2031
erhaps	-2032
itness	-2033
ressed	-2034
▁bride	-2035
▁claim	-2036
▁conce	-2037
▁force	-2038
▁later	-2039
▁shook	-2040
▁times	-2041
▁German	-2042
▁United	-2043
▁associ	-2044
▁centre	-2045
▁double	-2046
▁endeav	-2047
▁events	-2048
▁making	-2049
▁method	-2050
▁suspic	-2051
▁ventil	-2052
▁wooden	-2053
▁arrived	-2054
▁cleared	-2055
▁company	-2056
▁dropped	-2057
▁machine	-2058
▁smiling	-2059
formation	-2060
▁Openshaw	-2061
▁armchair	-2062
▁dressing	-2063
▁entirely	-2064
▁evidence	-2065
▁examined	-2066
▁official	-2067
▁surprise	-2068
▁assistant	-2069
▁following	-2070
▁shoulders	-2071
▁whispered	-2072
▁appearance	-2073
▁determined	-2074
▁importance	-2075
▁impression	-2076
ED	-2077
Fr	-2078
So	-2079
_.	-2080
ex	-2081
ey	-2082
gr	-2083
▁4	-2084
000	-2085
bly	-2086
dle	-2087
dra	-2088
▁Sw	-2089
erry	-2090
ided	-2091
▁Bos	-2092
▁Our	-2093
▁Pet	-2094
▁anx	-2095
▁dec	-2096
▁fif	-2097
▁gaz	-2098
▁gem	-2099
▁lit	-2100
▁mis	-2101
▁opp	-2102
▁smo	-2103
▁spo	-2104
▁top	-2105
ching	-2106
combe	-2107
eding	-2108
istol	-2109
▁Arch	-2110
▁Road	-2111
▁book	-2112
▁didn	-2113
▁fast	-2114
▁firm	-2115
▁forg	-2116
▁hall	-2117
▁lane	-2118
▁live	-2119
▁paid	-2120
▁poss	-2121
▁pret	-2122
▁says	-2123
▁self	-2124
▁situ	-2125
olonel	-2126
othing	-2127
▁Adler	-2128
▁Bohem	-2129
▁breat	-2130
▁build	-2131
▁comes	-2132
▁exact	-2133
▁expen	-2134
▁field	-2135
▁power	-2136
▁reach	-2137
▁satis	-2138
▁sheet	-2139
▁smoke	-2140
▁somew	-2141
▁swift	-2142
▁third	-2143
▁thumb	-2144
▁trade	-2145
▁trans	-2146
▁truth	-2147
▁yours	-2148
▁Square	-2149
▁Toller	-2150
▁answer	-2151
▁arrest	-2152
▁caused	-2153
▁follow	-2154
▁garden	-2155
▁number	-2156
▁record	-2157
▁search	-2158
▁taking	-2159
▁thirty	-2160
▁typewr	-2161
▁waited	-2162
▁yellow	-2163
▁beautif	-2164
▁chamber	-2165
▁consult	-2166
▁engaged	-2167
▁extreme	-2168
▁finally	-2169
▁turning	-2170
▁writing	-2171
▁afternoon	-2172
▁different	-2173
▁ventilator	-2174
ec	-2175
ef	-2176
irt	-2177
rud	-2178
umn	-2179
unc	-2180
urb	-2181
ury	-2182
▁18	-2183
▁ri	-2184
adst	-2185
alth	-2186
cend	-2187
ergy	-2188
hand	-2189
ital	-2190
ixed	-2191
ized	-2192
pose	-2193
ries	-2194
▁age	-2195
▁fav	-2196
▁fee	-2197
▁hon	-2198
▁imm	-2199
ander	-2200
ately	-2201
ening	-2202
onday	-2203
spect	-2204
ustom	-2205
▁Scot	-2206
▁Some	-2207
▁bene	-2208
▁bent	-2209
▁chin	-2210
▁died	-2211
▁fair	-2212
▁hang	-2213
▁lean	-2214
▁perm	-2215
▁priv	-2216
▁stre	-2217
cisely	-2218
velope	-2219
▁Irene	-2220
▁begin	-2221
▁broke	-2222
▁cloud	-2223
▁eight	-2224
▁famil	-2225
▁fancy	-2226
▁intro	-2227
▁lying	-2228
▁noble	-2229
▁scene	-2230
▁track	-2231
▁whist	-2232
▁wrote	-2233
ishment	-2234
iterary	-2235
ossible	-2236
▁George	-2237
▁Monday	-2238
▁action	-2239
▁affair	-2240
▁cellar	-2241
▁includ	-2242
▁middle	-2243
▁pushed	-2244
▁remain	-2245
▁scream	-2246
ointment	-2247
▁because	-2248
▁clearly	-2249
▁colonel	-2250
▁friends	-2251
▁neither	-2252
▁promise	-2253
▁shutter	-2254
▁society	-2255
▁subject	-2256
▁walking	-2257
▁Boscombe	-2258
▁darkness	-2259
▁envelope	-2260
▁features	-2261
▁incident	-2262
▁presence	-2263
▁probably	-2264
▁shoulder	-2265
▁terrible	-2266
▁continued	-2267
▁excellent	-2268
▁particular	-2269
▁professional	-2270
II	-2271
To	-2272
br	-2273
lu	-2274
op	-2275
ENT	-2276
One	-2277
eng	-2278
iry	-2279
ten	-2280
ugg	-2281
▁ir	-2282
▁ta	-2283
aven	-2284
eper	-2285
hood	-2286
ises	-2287
like	-2288
sing	-2289
▁bit	-2290
▁lin	-2291
▁loc	-2292
▁lou	-2293
▁mot	-2294
▁sor	-2295
▁vac	-2296
▁vol	-2297
Where	-2298
andal	-2299
astic	-2300
house	-2301
isted	-2302
ouses	-2303
place	-2304
redit	-2305
▁From	-2306
▁Good	-2307
▁Ross	-2308
▁amid	-2309
▁arms	-2310
▁clue	-2311
▁disg	-2312
▁edge	-2313
▁gems	-2314
▁glim	-2315
▁gras	-2316
▁lens	-2317
▁nice	-2318
▁seat	-2319
▁shot	-2320
Indeed	-2321
itions	-2322
keeper	-2323
ooking	-2324
terday	-2325
▁Moran	-2326
▁accom	-2327
▁carry	-2328
▁delic	-2329
▁early	-2330
▁earth	-2331
▁horse	-2332
▁human	-2333
▁indic	-2334
▁often	-2335
▁raise	-2336
▁shout	-2337
▁signs	-2338
▁stret	-2339
▁tried	-2340
▁usual	-2341
▁worth	-2342
Certain	-2343
itation	-2344
oloured	-2345
▁Horner	-2346
▁League	-2347
▁access	-2348
▁commun	-2349
▁deduce	-2350
▁effort	-2351
▁excuse	-2352
▁explan	-2353
▁horror	-2354
▁inside	-2355
▁months	-2356
▁narrow	-2357
▁nearly	-2358
▁stairs	-2359
▁streng	-2360
▁unfort	-2361
▁Archive	-2362
▁Colonel	-2363
▁English	-2364
▁example	-2365
▁heavily	-2366
▁immense	-2367
▁private	-2368
▁servant	-2369
▁slipped	-2370
Certainly	-2371
▁Literary	-2372
▁distinct	-2373
▁expected	-2374
▁horrible	-2375
▁whatever	-2376
▁adventure	-2377
▁knowledge	-2378
▁situation	-2379
▁therefore	-2380
▁frightened	-2381
▁impossible	-2382
▁unfortunate	-2383
IT	-2384
Is	-2385
ah	-2386
bb	-2387
gn	-2388
Pre	-2389
She	-2390
ded	-2391
fer	-2392
lay	-2393
let	-2394
ric	-2395
ses	-2396
vol	-2397
zen	-2398
▁Ry	-2399
▁er	-2400
▁hu	-2401
Good	-2402
Have	-2403
ache	-2404
ents	-2405
iced	-2406
ices	-2407
ific	-2408
ives	-2409
rope	-2410
umst	-2411
▁Her	-2412
▁bag	-2413
▁dep	-2414
▁fat	-2415
▁fut	-2416
▁pal	-2417
▁pit	-2418
ascar	-2419
board	-2420
ended	-2421
iable	-2422
illed	-2423
inite	-2424
uther	-2425
▁Pray	-2426
▁begg	-2427
▁bill	-2428
▁blow	-2429
▁crim	-2430
▁dest	-2431
▁grew	-2432
▁iron	-2433
▁kept	-2434
▁lawn	-2435
▁pair	-2436
▁prep	-2437
▁rich	-2438
▁roof	-2439
▁stay	-2440
▁trap	-2441
▁warn	-2442
▁ways	-2443
▁worn	-2444
errywe	-2445
isoner	-2446
▁Count	-2447
▁Doran	-2448
▁Ryder	-2449
▁alive	-2450
▁boots	-2451
▁bound	-2452
▁cigar	-2453
▁const	-2454
▁eager	-2455
▁fifty	-2456
▁forth	-2457
▁knows	-2458
▁lived	-2459
▁looks	-2460
▁madam	-2461
▁opium	-2462
▁piece	-2463
▁sense	-2464
▁trave	-2465
▁weary	-2466
▁wrist	-2467
▁Bradst	-2468
▁Lascar	-2469
▁banker	-2470
▁broken	-2471
▁direct	-2472
▁future	-2473
▁honour	-2474
▁houses	-2475
▁marked	-2476
▁master	-2477
▁murder	-2478
▁pretty	-2479
▁provid	-2480
▁spoken	-2481
▁thrust	-2482
▁traces	-2483
▁wished	-2484
▁Merrywe	-2485
▁describ	-2486
▁inquiry	-2487
▁missing	-2488
▁prevent	-2489
▁purpose	-2490
▁results	-2491
▁running	-2492
▁shining	-2493
▁streets	-2494
▁swiftly	-2495
▁trouble	-2496
Precisely	-2497
▁building	-2498
▁communic	-2499
▁creature	-2500
▁criminal	-2501
▁practice	-2502
▁straight	-2503
▁throwing	-2504
▁donations	-2505
▁exceeding	-2506
▁narrative	-2507
▁statement	-2508
▁trademark	-2509
▁Bradstreet	-2510
▁interested	-2511
▁Merryweather	-2512
▁investigation	-2513
By	-2514
ES	-2515
St	-2516
kn	-2517
mp	-2518
ny	-2519
▁3	-2520
acc	-2521
ata	-2522
bur	-2523
nou	-2524
orm	-2525
que	-2526
rel	-2527
uct	-2528
ude	-2529
unk	-2530
unt	-2531
wel	-2532
▁Pa	-2533
▁Sp	-2534
▁di	-2535
▁’8	-2536
amed	-2537
bber	-2538
bert	-2539
bted	-2540
hest	-2541
iony	-2542
odge	-2543
ourt	-2544
rill	-2545
ring	-2546
rist	-2547
tain	-2548
ulic	-2549
vere	-2550
vous	-2551
▁Bes	-2552
▁Did	-2553
▁Hor	-2554
▁Yet	-2555
▁dim	-2556
▁fly	-2557
▁lie	-2558
▁mem	-2559
▁rub	-2560
acked	-2561
arent	-2562
chief	-2563
inced	-2564
ishes	-2565
ities	-2566
ories	-2567
ridor	-2568
zzled	-2569
▁Flor	-2570
▁Read	-2571
▁beat	-2572
▁bott	-2573
▁burn	-2574
▁card	-2575
▁cost	-2576
▁crow	-2577
▁ears	-2578
▁emer	-2579
▁empt	-2580
▁evil	-2581
▁fine	-2582
▁fool	-2583
▁harm	-2584
▁huge	-2585
▁hung	-2586
▁jour	-2587
▁nine	-2588
▁page	-2589
▁ratt	-2590
▁sake	-2591
▁sens	-2592
▁snow	-2593
▁sole	-2594
▁stud	-2595
▁suit	-2596
▁thor	-2597
▁wear	-2598
▁wild	-2599
antern	-2600
erence	-2601
hester	-2602
luence	-2603
oughly	-2604
though	-2605
ushing	-2606
▁Alice	-2607
▁Jones	-2608
▁Lodge	-2609
▁admir	-2610
▁aston	-2611
▁cheek	-2612
▁compl	-2613
▁cross	-2614
▁fixed	-2615
▁frequ	-2616
▁hydra	-2617
▁mouth	-2618
▁occup	-2619
▁proof	-2620
▁sweet	-2621
▁throw	-2622
▁value	-2623
looking	-2624
uttered	-2625
▁Briony	-2626
▁Christ	-2627
▁Suther	-2628
▁accept	-2629
▁affect	-2630
▁church	-2631
▁couple	-2632
▁deeply	-2633
▁depend	-2634
▁easily	-2635
▁employ	-2636
▁raised	-2637
▁secure	-2638
▁threat	-2639
▁unless	-2640
▁wanted	-2641
aintance	-2642
▁Bohemia	-2643
▁concern	-2644
▁conduct	-2645
▁correct	-2646
▁curious	-2647
▁drawing	-2648
▁fingers	-2649
▁further	-2650
▁passing	-2651
▁passion	-2652
▁presume	-2653
▁respect	-2654
▁scandal	-2655
▁Peterson	-2656
▁Scotland	-2657
▁contrary	-2658
▁corridor	-2659
▁possibly	-2660
▁precious	-2661
▁prisoner	-2662
▁strength	-2663
▁upstairs	-2664
▁beautiful	-2665
▁distribut	-2666
▁evidently	-2667
▁hydraulic	-2668
▁influence	-2669
▁perfectly	-2670
▁reasoning	-2671
▁returning	-2672
▁Sutherland	-2673
▁assistance	-2674
▁associated	-2675
▁connection	-2676
▁permission	-2677
▁examination	-2678
▁exceedingly	-2679
▁explanation	-2680
▁information	-2681
▁acquaintance	-2682
▁neighbourhood	-2683
As	-2684
IS	-2685
ND	-2686
ww	-2687
aff	-2688
ann	-2689
any	-2690
app	-2691
clo	-2692
ges	-2693
isk	-2694
mas	-2695
olk	-2696
pes	-2697
ram	-2698
rig	-2699
yal	-2700
▁Gr	-2701
▁Ha	-2702
▁Is	-2703
aded	-2704
aken	-2705
aped	-2706
aper	-2707
atic	-2708
bout	-2709
enry	-2710
erve	-2711
iant	-2712
medi	-2713
olog	-2714
osed	-2715
pent	-2716
reck	-2717
sham	-2718
sive	-2719
ught	-2720
▁Cor	-2721
▁Ind	-2722
▁Sir	-2723
▁Was	-2724
▁cup	-2725
▁der	-2726
▁fla	-2727
▁hig	-2728
▁lip	-2729
▁mag	-2730
▁pea	-2731
▁tem	-2732
Never	-2733
ables	-2734
denly	-2735
gings	-2736
iture	-2737
lined	-2738
ously	-2739
urely	-2740
▁Pool	-2741
▁Winc	-2742
▁Yard	-2743
▁data	-2744
▁date	-2745
▁duty	-2746
▁laws	-2747
▁lose	-2748
▁loss	-2749
▁murd	-2750
▁neck	-2751
▁path	-2752
▁pave	-2753
▁pers	-2754
▁pips	-2755
▁shri	-2756
▁soul	-2757
▁trif	-2758
▁west	-2759
inging	-2760
ouring	-2761
ousand	-2762
racted	-2763
vering	-2764
▁Henry	-2765
▁Stoke	-2766
▁allow	-2767
▁angry	-2768
▁annou	-2769
▁aware	-2770
▁clean	-2771
▁court	-2772
▁devil	-2773
▁dozen	-2774
▁dream	-2775
▁empty	-2776
▁gloom	-2777
▁knees	-2778
▁loung	-2779
▁makes	-2780
▁marks	-2781
▁metal	-2782
▁produ	-2783
▁sorry	-2784
▁spent	-2785
▁spite	-2786
▁stair	-2787
▁twice	-2788
▁using	-2789
▁vague	-2790
▁watch	-2791
ription	-2792
uddenly	-2793
▁advant	-2794
▁become	-2795
▁cheeks	-2796
▁column	-2797
▁comply	-2798
▁engine	-2799
▁fallen	-2800
▁formed	-2801
▁freely	-2802
▁immedi	-2803
▁kindly	-2804
▁latter	-2805
▁longer	-2806
▁memory	-2807
▁merely	-2808
▁notice	-2809
▁picked	-2810
▁recogn	-2811
▁robber	-2812
▁saying	-2813
▁seized	-2814
▁shadow	-2815
▁solved	-2816
▁square	-2817
▁strugg	-2818
▁thrown	-2819
kerchief	-2820
▁America	-2821
▁Horsham	-2822
▁However	-2823
▁License	-2824
▁Perhaps	-2825
▁Reading	-2826
▁anxious	-2827
▁beneath	-2828
▁ceiling	-2829
▁convers	-2830
▁coroner	-2831
▁farther	-2832
▁grounds	-2833
▁herself	-2834
▁learned	-2835
▁managed	-2836
▁methods	-2837
▁nervous	-2838
▁opening	-2839
▁ordered	-2840
▁patient	-2841
▁pointed	-2842
▁whistle	-2843
▁although	-2844
▁circumst	-2845
▁fastened	-2846
▁pavement	-2847
▁probable	-2848
▁shutters	-2849
▁sinister	-2850
▁solution	-2851
▁thousand	-2852
▁vanished	-2853
▁Christmas	-2854
▁fortunate	-2855
▁intention	-2856
▁yesterday	-2857
▁Winchester	-2858
▁commission	-2859
▁questioning	-2860
▁conversation	-2861
▁handkerchief	-2862
▁occasionally	-2863
▁disappearance	-2864
At	-2865
CT	-2866
Ex	-2867
Ha	-2868
LE	-2869
NT	-2870
ez	-2871
my	-2872
ns	-2873
.’”	-2874
Who	-2875
als	-2876
bre	-2877
erk	-2878
ilt	-2879
ios	-2880
ips	-2881
lig	-2882
org	-2883
ors	-2884
pet	-2885
rep	-2886
ues	-2887
▁AD	-2888
▁Ey	-2889
▁av	-2890
None	-2891
aled	-2892
bacc	-2893
burg	-2894
icks	-2895
ivid	-2896
llow	-2897
oper	-2898
ping	-2899
play	-2900
▁Ser	-2901
▁Who	-2902
▁alt	-2903
▁arr	-2904
▁cal	-2905
▁fit	-2906
▁ink	-2907
▁jud	-2908
▁sad	-2909
▁tax	-2910
▁ver	-2911
acket	-2912
ances	-2913
antic	-2914
bered	-2915
icher	-2916
istic	-2917
known	-2918
lding	-2919
orted	-2920
uable	-2921
ureau	-2922
▁Come	-2923
▁Just	-2924
▁West	-2925
▁aver	-2926
▁desp	-2927
▁fain	-2928
▁fate	-2929
▁folk	-2930
▁goes	-2931
▁leng	-2932
▁lies	-2933
▁loud	-2934
▁mass	-2935
▁moon	-2936
▁neat	-2937
▁ones	-2938
▁pity	-2939
▁pool	-2940
▁pray	-2941
▁rain	-2942
▁ship	-2943
▁shru	-2944
▁sofa	-2945
▁spec	-2946
▁stag	-2947
▁sunk	-2948
▁thro	-2949
▁tide	-2950
▁triv	-2951
▁unus	-2952
ential	-2953
icient	-2954
idence	-2955
inkled	-2956
iosity	-2957
lesman	-2958
locked	-2959
▁Stark	-2960
▁Water	-2961
▁agent	-2962
▁alarm	-2963
▁anger	-2964
▁apply	-2965
▁blind	-2966
▁books	-2967
▁bowed	-2968
▁chain	-2969
▁check	-2970
▁chuck	-2971
▁dying	-2972
▁grass	-2973
▁grave	-2974
▁hotel	-2975
▁hurry	-2976
▁landl	-2977
▁meant	-2978
▁newsp	-2979
▁notes	-2980
▁oblig	-2981
▁prove	-2982
▁saved	-2983
▁shape	-2984
▁smell	-2985
▁thank	-2986
▁touch	-2987
▁treat	-2988
▁write	-2989
▁yards	-2990
Witness	-2991
ational	-2992
cessary	-2993
▁Eyford	-2994
▁Having	-2995
▁appear	-2996
▁bureau	-2997
▁circle	-2998
▁credit	-2999
▁deadly	-3000
▁disapp	-3001
▁estate	-3002
▁favour	-3003
▁gained	-3004
▁gather	-3005
▁habits	-3006
▁keenly	-3007
▁ladies	-3008
▁minute	-3009
▁orange	-3010
▁pistol	-3011
▁refund	-3012
▁reward	-3013
▁rising	-3014
▁satisf	-3015
▁stable	-3016
▁strike	-3017
▁theory	-3018
▁tobacc	-3019
▁weight	-3020
position	-3021
▁Besides	-3022
▁Nothing	-3023
▁affairs	-3024
▁allowed	-3025
▁covered	-3026
▁disturb	-3027
▁finding	-3028
▁fortune	-3029
▁journey	-3030
▁lantern	-3031
▁leaving	-3032
▁medical	-3033
▁natural	-3034
▁offered	-3035
▁perform	-3036
▁proceed	-3037
▁putting	-3038
▁shaking	-3039
▁shouted	-3040
▁stepped	-3041
▁talking	-3042
▁trivial	-3043
gutenberg	-3044
▁American	-3045
▁Suddenly	-3046
▁approach	-3047
▁arrested	-3048
▁continue	-3049
▁definite	-3050
▁familiar	-3051
▁finished	-3052
▁goodness	-3053
▁pleasure	-3054
▁salesman	-3055
▁violence	-3056
▁Adventure	-3057
▁carefully	-3058
▁concerned	-3059
▁convinced	-3060
▁curiosity	-3061
▁explained	-3062
▁furniture	-3063
▁recovered	-3064
▁sometimes	-3065
▁stretched	-3066
▁suggested	-3067
▁discovered	-3068
▁frequently	-3069
▁suggestive	-3070
▁thoroughly	-3071
▁appointment	-3072
▁disappeared	-3073
▁endeavoured	-3074
▁astonishment	-3075
▁circumstances	-3076
**	-3077
.,	-3078
0,	-3079
Co	-3080
ON	-3081
OR	-3082
Of	-3083
RA	-3084
SE	-3085
ky	-3086
sc	-3087
ug	-3088
URE	-3089
Was	-3090
acy	-3091
ale	-3092
ear	-3093
ety	-3094
har	-3095
iny	-3096
ius	-3097
ize	-3098
loo	-3099
mit	-3100
onn	-3101
ork	-3102
urd	-3103
zes	-3104
▁LI	-3105
VENT	-3106
abez	-3107
apon	-3108
arse	-3109
aves	-3110
cart	-3111
elve	-3112
erer	-3113
erty	-3114
fall	-3115
ffee	-3116
fter	-3117
hold	-3118
ials	-3119
idge	-3120
ince	-3121
kers	-3122
line	-3123
ming	-3124
oura	-3125
unte	-3126
work	-3127
▁Bee	-3128
▁Cal	-3129
▁Red	-3130
▁Sax	-3131
▁Why	-3132
▁ess	-3133
▁fle	-3134
▁fra	-3135
▁fun	-3136
▁gre	-3137
▁hes	-3138
▁lab	-3139
▁pan	-3140
▁rat	-3141
▁rum	-3142
▁suc	-3143
▁var	-3144
▁wid	-3145
▁www	-3146
andam	-3147
erred	-3148
faced	-3149
groom	-3150
ierce	-3151
imate	-3152
iting	-3153
itney	-3154
ology	-3155
otten	-3156
shire	-3157
table	-3158
usion	-3159
▁1000	-3160
▁Have	-3161
▁Lane	-3162
▁Spau	-3163
▁Will	-3164
▁bear	-3165
▁busy	-3166
▁camp	-3167
▁clay	-3168
▁crop	-3169
▁dece	-3170
▁drop	-3171
▁dust	-3172
▁gain	-3173
▁game	-3174
▁gips	-3175
▁hast	-3176
▁link	-3177
▁main	-3178
▁nose	-3179
▁plan	-3180
▁port	-3181
▁remo	-3182
▁repe	-3183
▁rese	-3184
▁resp	-3185
▁slee	-3186
▁slip	-3187
▁soft	-3188
▁sold	-3189
▁stop	-3190
▁stro	-3191
▁symp	-3192
▁veil	-3193
▁warm	-3194
▁weak	-3195
▁wore	-3196
adding	-3197
ancies	-3198
btedly	-3199
formed	-3200
imesby	-3201
unning	-3202
▁Boone	-3203
▁Flora	-3204
▁Jabez	-3205
▁Still	-3206
▁These	-3207
▁artic	-3208
▁becom	-3209
▁below	-3210
▁brand	-3211
▁brill	-3212
▁catch	-3213
▁chest	-3214
▁crack	-3215
▁fores	-3216
▁frock	-3217
▁gives	-3218
▁gover	-3219
▁habit	-3220
▁heads	-3221
▁ident	-3222
▁jewel	-3223
▁lives	-3224
▁lodge	-3225
▁noise	-3226
▁party	-3227
▁pound	-3228
▁princ	-3229
▁recom	-3230
▁revol	-3231
▁river	-3232
▁royal	-3233
▁shade	-3234
▁spare	-3235
▁stout	-3236
▁trees	-3237
▁troub	-3238
▁trous	-3239
▁upper	-3240
▁waist	-3241
▁walls	-3242
▁wound	-3243
Nothing	-3244
VENTURE	-3245
achelor	-3246
fortune	-3247
ividual	-3248
pentine	-3249
▁Copper	-3250
▁assure	-3251
▁beauty	-3252
▁bottom	-3253
▁button	-3254
▁ceased	-3255
▁clever	-3256
▁coffee	-3257
▁dashed	-3258
▁desert	-3259
▁desire	-3260
▁driven	-3261
▁fierce	-3262
▁flight	-3263
▁interv	-3264
▁living	-3265
▁market	-3266
▁myster	-3267
▁observ	-3268
▁prompt	-3269
▁recall	-3270
▁series	-3271
▁states	-3272
▁stream	-3273
▁terror	-3274
▁trying	-3275
▁twelve	-3276
▁weapon	-3277
coloured	-3278
oubtedly	-3279
pleasant	-3280
▁Beeches	-3281
▁Coroner	-3282
▁Swandam	-3283
▁Whitney	-3284
▁accompl	-3285
▁bearing	-3286
▁brother	-3287
▁careful	-3288
▁comfort	-3289
▁conject	-3290
▁despair	-3291
▁display	-3292
▁emerged	-3293
▁general	-3294
▁glasses	-3295
▁introdu	-3296
▁manager	-3297
▁plainly	-3298
▁pockets	-3299
▁protrud	-3300
▁provide	-3301
▁reasons	-3302
▁receive	-3303
▁settled	-3304
▁stopped	-3305
▁succeed	-3306
▁tobacco	-3307
▁twisted	-3308
▁unusual	-3309
▁villain	-3310
▁winding	-3311
▁Countess	-3312
▁Grimesby	-3313
▁Waterloo	-3314
▁breaking	-3315
▁carrying	-3316
▁children	-3317
▁clearing	-3318
▁distance	-3319
▁lodgings	-3320
▁mistaken	-3321
▁property	-3322
▁shrugged	-3323
▁somewhat	-3324
▁startled	-3325
▁ADVENTURE	-3326
▁Spaulding	-3327
▁brilliant	-3328
▁committed	-3329
▁exception	-3330
▁furnished	-3331
▁household	-3332
▁including	-3333
▁naturally	-3334
▁suspicion	-3335
▁Serpentine	-3336
▁conclusion	-3337
▁difficulty	-3338
▁expression	-3339
▁individual	-3340
▁possession	-3341
▁commonplace	-3342
▁conclusions	-3343
▁description	-3344
),	-3345
AG	-3346
OU	-3347
RO	-3348
UT	-3349
aw	-3350
az	-3351
bl	-3352
do	-3353
mo	-3354
▁&	-3355
▁5	-3356
▁6	-3357
Coo	-3358
ape	-3359
arr	-3360
bec	-3361
ech	-3362
ept	-3363
eth	-3364
ify	-3365
jac	-3366
leg	-3367
par	-3368
pid	-3369
pse	-3370
raw	-3371
uke	-3372
urs	-3373
uss	-3374
yer	-3375
▁Eu	-3376
▁Sh	-3377
▁TH	-3378
▁pu	-3379
From	-3380
aire	-3381
aksh	-3382
arer	-3383
bing	-3384
eder	-3385
fing	-3386
iday	-3387
ingu	-3388
lpha	-3389
nsom	-3390
oted	-3391
recy	-3392
seen	-3393
ship	-3394
teen	-3395
unch	-3396
yond	-3397
▁Bri	-3398
▁Lee	-3399
▁Lys	-3400
▁See	-3401
▁Two	-3402
▁aid	-3403
▁buy	-3404
▁cla	-3405
▁fac	-3406
▁hun	-3407
▁ign	-3408
▁kno	-3409
▁lid	-3410
▁mor	-3411
▁nod	-3412
▁pet	-3413
▁pew	-3414
▁sal	-3415
▁try	-3416
Cooee	-3417
Which	-3418
alley	-3419
anged	-3420
avens	-3421
chool	-3422
earth	-3423
ified	-3424
inrid	-3425
iries	-3426
itive	-3427
itude	-3428
jacul	-3429
orter	-3430
round	-3431
spond	-3432
uncan	-3433
uries	-3434
venue	-3435
veyed	-3436
where	-3437
▁Assi	-3438
▁Brit	-3439
▁Burn	-3440
▁Clay	-3441
▁Farm	-3442
▁Saxe	-3443
▁anim	-3444
▁bord	-3445
▁club	-3446
▁clut	-3447
▁debt	-3448
▁dull	-3449
▁east	-3450
▁enem	-3451
▁fant	-3452
▁fold	-3453
▁hurt	-3454
▁init	-3455
▁jury	-3456
▁knee	-3457
▁legs	-3458
▁lone	-3459
▁move	-3460
▁orig	-3461
▁peep	-3462
▁pict	-3463
▁prec	-3464
▁prem	-3465
▁reve	-3466
▁ruin	-3467
▁rush	-3468
▁shut	-3469
▁size	-3470
▁spir	-3471
▁summ	-3472
▁tail	-3473
▁test	-3474
▁toss	-3475
▁trad	-3476
▁wand	-3477
▁wing	-3478
Holmes	-3479
angled	-3480
ctions	-3481
ecause	-3482
ective	-3483
handed	-3484
iction	-3485
idable	-3486
liance	-3487
▁About	-3488
▁Alpha	-3489
▁Court	-3490
▁Every	-3491
▁Oaksh	-3492
▁Where	-3493
▁angle	-3494
▁aside	-3495
▁burst	-3496
▁cloak	-3497
▁cloth	-3498
▁crowd	-3499
▁depos	-3500
▁disgu	-3501
▁doors	-3502
▁dried	-3503
▁fault	-3504
▁funny	-3505
▁grief	-3506
▁guard	-3507
▁guess	-3508
▁hopes	-3509
▁impat	-3510
▁impro	-3511
▁limbs	-3512
▁loose	-3513
▁lover	-3514
▁lower	-3515
▁marry	-3516
▁match	-3517
▁moist	-3518
▁paced	-3519
▁plans	-3520
▁rapid	-3521
▁recei	-3522
▁resol	-3523
▁rough	-3524
▁separ	-3525
▁skill	-3526
▁smile	-3527
▁stick	-3528
▁study	-3529
▁trace	-3530
▁utter	-3531
▁women	-3532
▁woods	-3533
▁youth	-3534
ability	-3535
ergyman	-3536
inridge	-3537
istence	-3538
ustomed	-3539
▁Duncan	-3540
▁Europe	-3541
▁France	-3542
▁advise	-3543
▁barred	-3544
▁beggar	-3545
▁belong	-3546
▁beyond	-3547
▁bitter	-3548
▁brandy	-3549
▁breath	-3550
▁collar	-3551
▁copies	-3552
▁custom	-3553
▁defect	-3554
▁destro	-3555
▁duties	-3556
▁eBooks	-3557
▁ejacul	-3558
▁eleven	-3559
▁energy	-3560
▁fairly	-3561
▁feared	-3562
▁forced	-3563
▁former	-3564
▁fuller	-3565
▁gently	-3566
▁hansom	-3567
▁holder	-3568
▁intell	-3569
▁larger	-3570
▁lately	-3571
▁lawyer	-3572
▁laying	-3573
▁missed	-3574
▁paying	-3575
▁please	-3576
▁poison	-3577
▁prefer	-3578
▁presum	-3579
▁repres	-3580
▁settle	-3581
▁signal	-3582
▁stones	-3583
▁supper	-3584
▁temper	-3585
▁throat	-3586
▁wheels	-3587
▁wouldn	-3588
▁Assizes	-3589
▁Padding	-3590
▁Section	-3591
▁apology	-3592
▁becomes	-3593
▁command	-3594
▁cunning	-3595
▁delight	-3596
▁descend	-3597
▁driving	-3598
▁exactly	-3599
▁getting	-3600
▁gipsies	-3601
▁glimpse	-3602
▁hanging	-3603
▁heavens	-3604
▁highest	-3605
▁injured	-3606
▁instead	-3607
▁leaning	-3608
▁license	-3609
▁located	-3610
▁noticed	-3611
▁painful	-3612
▁possess	-3613
▁printed	-3614
▁process	-3615
▁records	-3616
▁refused	-3617
▁remains	-3618
▁removed	-3619
▁replace	-3620
▁request	-3621
▁robbery	-3622
▁secrecy	-3623
▁shortly	-3624
▁suspect	-3625
▁usually	-3626
▁vacancy	-3627
▁village	-3628
▁violent	-3629
▁volunte	-3630
▁witness	-3631
▁working	-3632
▁Burnwell	-3633
▁Lysander	-3634
▁Oakshott	-3635
▁accident	-3636
▁bachelor	-3637
▁backward	-3638
▁chuckled	-3639
▁delicate	-3640
▁engineer	-3641
▁forehead	-3642
▁heartily	-3643
▁initials	-3644
▁pointing	-3645
▁previous	-3646
▁problems	-3647
▁provided	-3648
▁referred	-3649
▁retained	-3650
▁revolver	-3651
▁servants	-3652
▁thinking	-3653
▁trousers	-3654
▁beginning	-3655
▁clergyman	-3656
▁connected	-3657
▁described	-3658
▁detective	-3659
▁essential	-3660
▁fantastic	-3661
▁inquiries	-3662
▁presented	-3663
▁reference	-3664
▁scattered	-3665
▁somewhere	-3666
▁waistcoat	-3667
reckinridge	-3668
▁Paddington	-3669
▁approached	-3670
▁bridegroom	-3671
▁correspond	-3672
▁downstairs	-3673
▁formidable	-3674
▁successful	-3675
▁unpleasant	-3676
▁immediately	-3677
▁considerably	-3678
▁distributing	-3679
▁particularly	-3680
.1	-3681
.3	-3682
AL	-3683
AT	-3684
IL	-3685
OL	-3686
de	-3687
eg	-3688
gl	-3689
jo	-3690
mn	-3691
pæ	-3692
ws	-3693
—“	-3694
▁X	-3695
Did	-3696
For	-3697
God	-3698
His	-3699
Let	-3700
Pro	-3701
aly	-3702
bro	-3703
bye	-3704
elp	-3705
ica	-3706
ils	-3707
ior	-3708
irm	-3709
itc	-3710
kes	-3711
kin	-3712
min	-3713
oid	-3714
ole	-3715
pæd	-3716
sec	-3717
set	-3718
str	-3719
uch	-3720
uel	-3721
whe	-3722
yle	-3723
▁11	-3724
▁22	-3725
▁Ah	-3726
▁Cr	-3727
▁De	-3728
▁NO	-3729
▁OR	-3730
▁ep	-3731
▁ul	-3732
Come	-3733
Lone	-3734
Only	-3735
Some	-3736
ales	-3737
amps	-3738
angu	-3739
athe	-3740
athy	-3741
body	-3742
bunc	-3743
case	-3744
eked	-3745
ency	-3746
erem	-3747
eren	-3748
etah	-3749
gedy	-3750
gown	-3751
hall	-3752
ilar	-3753
inge	-3754
isco	-3755
ists	-3756
ldom	-3757
oked	-3758
oned	-3759
oria	-3760
past	-3761
pull	-3762
rand	-3763
ripp	-3764
rive	-3765
rupt	-3766
stem	-3767
telp	-3768
this	-3769
wise	-3770
xton	-3771
▁Don	-3772
▁Had	-3773
▁Ins	-3774
▁Its	-3775
▁Mor	-3776
▁Sav	-3777
▁YOU	-3778
▁bab	-3779
▁big	-3780
▁ble	-3781
▁cre	-3782
▁dad	-3783
▁dam	-3784
▁deg	-3785
▁elb	-3786
▁gro	-3787
▁gun	-3788
▁lap	-3789
▁lot	-3790
▁mer	-3791
▁mus	-3792
▁owe	-3793
▁pac	-3794
▁pun	-3795
▁rid	-3796
▁ris	-3797
▁sla	-3798
▁slo	-3799
▁squ	-3800
▁tut	-3801
▁wit	-3802
aking	-3803
arted	-3804
cyclo	-3805
ented	-3806
erous	-3807
gered	-3808
immed	-3809
indly	-3810
iring	-3811
ision	-3812
lling	-3813
mered	-3814
mured	-3815
orton	-3816
otion	-3817
oused	-3818
ppers	-3819
rench	-3820
ribly	-3821
there	-3822
unity	-3823
urbed	-3824
urity	-3825
using	-3826
usted	-3827
uthor	-3828
wnbro	-3829
▁Chin	-3830
▁Cont	-3831
▁Duke	-3832
▁Dund	-3833
▁Even	-3834
▁Sout	-3835
▁Star	-3836
▁Very	-3837
▁Vict	-3838
▁ball	-3839
▁bonn	-3840
▁brow	-3841
▁bund	-3842
▁cast	-3843
▁city	-3844
▁cord	-3845
▁cris	-3846
▁deed	-3847
▁fail	-3848
▁fill	-3849
▁fond	-3850
▁foul	-3851
▁gang	-3852
▁gest	-3853
▁grip	-3854
▁hide	-3855
▁inde	-3856
▁kitc	-3857
▁magn	-3858
▁mood	-3859
▁onto	-3860
▁pick	-3861
▁puff	-3862
▁rate	-3863
▁rule	-3864
▁sank	-3865
▁shat	-3866
▁sill	-3867
▁simp	-3868
▁sund	-3869
▁task	-3870
▁vict	-3871
▁whip	-3872
Coburg	-3873
buncle	-3874
lessly	-3875
pelled	-3876
ustral	-3877
▁Franc	-3878
▁Satur	-3879
▁Twice	-3880
▁acted	-3881
▁altar	-3882
▁analy	-3883
▁apart	-3884
▁brisk	-3885
▁cheer	-3886
▁clang	-3887
▁cripp	-3888
▁cruel	-3889
▁dimly	-3890
▁dirty	-3891
▁drink	-3892
▁drunk	-3893
▁enter	-3894
▁faced	-3895
▁faith	-3896
▁grasp	-3897
▁heels	-3898
▁hesit	-3899
▁ignor	-3900
▁incre	-3901
▁legal	-3902
▁lines	-3903
▁lunch	-3904
▁niece	-3905
▁north	-3906
▁older	-3907
▁oppos	-3908
▁ought	-3909
▁parts	-3910
▁peace	-3911
▁persu	-3912
▁reply	-3913
▁scent	-3914
▁share	-3915
▁shock	-3916
▁shoes	-3917
▁shone	-3918
▁solve	-3919
▁spark	-3920
▁spend	-3921
▁stall	-3922
▁swear	-3923
▁takes	-3924
▁thief	-3925
▁trick	-3926
▁wants	-3927
Because	-3928
Perhaps	-3929
agement	-3930
erences	-3931
itement	-3932
vereign	-3933
▁French	-3934
▁Norton	-3935
▁Robert	-3936
▁Stoper	-3937
▁Valley	-3938
▁absurd	-3939
▁amount	-3940
▁asking	-3941
▁beaten	-3942
▁belief	-3943
▁breast	-3944
▁buried	-3945
▁clouds	-3946
▁county	-3947
▁curled	-3948
▁drawer	-3949
▁escape	-3950
▁except	-3951
▁failed	-3952
▁fields	-3953
▁filled	-3954
▁forget	-3955
▁gasped	-3956
▁gazing	-3957
▁health	-3958
▁implic	-3959
▁income	-3960
▁instru	-3961
▁length	-3962
▁lonely	-3963
▁loudly	-3964
▁motion	-3965
▁nerves	-3966
▁nicely	-3967
▁obtain	-3968
▁parted	-3969
▁places	-3970
▁posted	-3971
▁pounds	-3972
▁powers	-3973
▁propri	-3974
▁recent	-3975
▁refuse	-3976
▁remove	-3977
▁rolled	-3978
▁salary	-3979
▁seated	-3980
▁served	-3981
▁smiled	-3982
▁solemn	-3983
▁speech	-3984
▁spring	-3985
▁stands	-3986
▁stared	-3987
▁talked	-3988
▁traced	-3989
▁trades	-3990
▁unlike	-3991
▁useful	-3992
▁whence	-3993
cyclopæd	-3994
telpiece	-3995
venience	-3996
wnbroker	-3997
▁Bristol	-3998
▁Brixton	-3999
▁Station	-4000
▁advance	-4001
▁amiable	-4002
▁assured	-4003
▁calling	-4004
▁cheetah	-4005
▁closely	-4006
▁closing	-4007
▁conceal	-4008
▁copying	-4009
▁devoted	-4010
▁earnest	-4011
▁efforts	-4012
▁equally	-4013
▁examine	-4014
▁expense	-4015
▁fainted	-4016
▁forever	-4017
▁founded	-4018
▁gravely	-4019
▁greater	-4020
▁holding	-4021
▁hunting	-4022
▁justice	-4023
▁keeping	-4024
▁kitchen	-4025
▁knowing	-4026
▁massive	-4027
▁mention	-4028
▁mission	-4029
▁obliged	-4030
▁offices	-4031
▁picture	-4032
▁princip	-4033
▁readily	-4034
▁remarks	-4035
▁require	-4036
▁retired	-4037
▁satisfa	-4038
▁showing	-4039
▁spirits	-4040
▁staring	-4041
▁telling	-4042
▁touched	-4043
▁warning	-4044
▁watched	-4045
▁weather	-4046
▁willing	-4047
▁Saturday	-4048
▁actually	-4049
▁apparent	-4050
▁bringing	-4051
▁commence	-4052
▁conveyed	-4053
▁director	-4054
▁greatest	-4055
▁grizzled	-4056
▁inclined	-4057
▁instinct	-4058
▁murderer	-4059
▁murmured	-4060
▁ordinary	-4061
▁personal	-4062
▁pleasant	-4063
▁positive	-4064
▁premises	-4065
▁preserve	-4066
▁pressing	-4067
▁reasoner	-4068
▁repeated	-4069
▁screamed	-4070
▁security	-4071
▁sentence	-4072
▁shrieked	-4073
▁stranger	-4074
▁swinging	-4075
▁sympathy	-4076
▁theories	-4077
▁thoughts	-4078
▁valuable	-4079
▁advantage	-4080
▁breathing	-4081
▁certainty	-4082
▁compelled	-4083
▁conscious	-4084
▁dangerous	-4085
▁deduction	-4086
▁examining	-4087
▁extremely	-4088
▁foresight	-4089
▁impressed	-4090
▁indicated	-4091
▁interview	-4092
▁practical	-4093
▁presently	-4094
▁shattered	-4095
▁sideboard	-4096
▁sovereign	-4097
▁staggered	-4098
▁travelled	-4099
▁accustomed	-4100
▁distinctly	-4101
▁excitement	-4102
▁misfortune	-4103
▁pawnbroker	-4104
▁sufficient	-4105
▁threatened	-4106
▁disposition	-4107
▁mantelpiece	-4108
▁observation	-4109
▁typewritten	-4110
▁undoubtedly	-4111
▁distribution	-4112
▁endeavouring	-4113
▁consideration	-4114
▁characteristic	-4115
,—	-4116
15	-4117
CK	-4118
EM	-4119
JE	-4120
cl	-4121
cr	-4122
gu	-4123
rd	-4124
wh	-4125
▁8	-4126
BER	-4127
HER	-4128
Hum	-4129
ITY	-4130
MES	-4131
Mrs	-4132
_.,	-4133
awn	-4134
box	-4135
boy	-4136
how	-4137
hus	-4138
iam	-4139
ias	-4140
ics	-4141
imp	-4142
ism	-4143
las	-4144
mpt	-4145
ned	-4146
nes	-4147
off	-4148
pre	-4149
reg	-4150
rug	-4151
see	-4152
six	-4153
udd	-4154
▁Or	-4155
▁ur	-4156
Just	-4157
Tell	-4158
aned	-4159
arat	-4160
aret	-4161
atul	-4162
atus	-4163
ault	-4164
bank	-4165
book	-4166
btle	-4167
burn	-4168
frey	-4169
ging	-4170
ique	-4171
ivil	-4172
laps	-4173
lder	-4174
leep	-4175
lied	-4176
loys	-4177
nced	-4178
neer	-4179
nies	-4180
oget	-4181
olen	-4182
otel	-4183
oult	-4184
over	-4185
peci	-4186
plex	-4187
rate	-4188
rent	-4189
resh	-4190
rict	-4191
rows	-4192
sure	-4193
then	-4194
tips	-4195
uous	-4196
uted	-4197
vant	-4198
▁188	-4199
▁Bal	-4200
▁Fin	-4201
▁Fow	-4202
▁HOL	-4203
▁Men	-4204
▁Out	-4205
▁PRO	-4206
▁Sur	-4207
▁Wed	-4208
▁asc	-4209
▁bal	-4210
▁bow	-4211
▁bul	-4212
▁dig	-4213
▁div	-4214
▁due	-4215
▁egg	-4216
▁ere	-4217
▁gar	-4218
▁gla	-4219
▁hyp	-4220
▁joy	-4221
▁loa	-4222
▁log	-4223
▁mod	-4224
▁mud	-4225
▁pin	-4226
▁row	-4227
▁sav	-4228
▁tie	-4229
▁tor	-4230
▁tri	-4231
▁unf	-4232
▁war	-4233
▁wra	-4234
aches	-4235
allic	-4236
annah	-4237
asket	-4238
ckled	-4239
eaden	-4240
enial	-4241
ghter	-4242
gment	-4243
hamed	-4244
icide	-4245
iding	-4246
illar	-4247
inent	-4248
itter	-4249
luded	-4250
nding	-4251
ontro	-4252
ulars	-4253
ument	-4254
umped	-4255
▁Ball	-4256
▁Bank	-4257
▁Both	-4258
▁Jack	-4259
▁Lady	-4260
▁Vinc	-4261
▁anno	-4262
▁bery	-4263
▁boot	-4264
▁bore	-4265
▁bull	-4266
▁cand	-4267
▁chem	-4268
▁chim	-4269
▁clad	-4270
▁cock	-4271
▁dang	-4272
▁dare	-4273
▁drug	-4274
▁gate	-4275
▁grin	-4276
▁hole	-4277
▁intr	-4278
▁keys	-4279
▁luck	-4280
▁mask	-4281
▁milk	-4282
▁obst	-4283
▁palm	-4284
▁park	-4285
▁pier	-4286
▁pill	-4287
▁plat	-4288
▁purs	-4289
▁rely	-4290
▁rise	-4291
▁runs	-4292
▁sele	-4293
▁sell	-4294
▁silk	-4295
▁sink	-4296
▁slam	-4297
▁tend	-4298
▁tied	-4299
▁tint	-4300
▁tong	-4301
▁tore	-4302
▁tree	-4303
▁whim	-4304
▁yard	-4305
action	-4306
atives	-4307
aution	-4308
bility	-4309
ectual	-4310
finger	-4311
gratul	-4312
istrib	-4313
legram	-4314
master	-4315
mbling	-4316
stains	-4317
ulsive	-4318
umbled	-4319
▁Aloys	-4320
▁China	-4321
▁Might	-4322
▁Those	-4323
▁birds	-4324
▁block	-4325
▁board	-4326
▁brass	-4327
▁brave	-4328
▁cerem	-4329
▁chase	-4330
▁clock	-4331
▁colle	-4332
▁couch	-4333
▁cover	-4334
▁delay	-4335
▁elder	-4336
▁enemy	-4337
▁error	-4338
▁estab	-4339
▁exped	-4340
▁fears	-4341
▁forty	-4342
▁frost	-4343
▁gazed	-4344
▁green	-4345
▁greet	-4346
▁groom	-4347
▁incon	-4348
▁langu	-4349
▁liber	-4350
▁local	-4351
▁loved	-4352
▁music	-4353
▁named	-4354
▁names	-4355
▁newly	-4356
▁owner	-4357
▁panel	-4358
▁perce	-4359
▁pitch	-4360
▁plant	-4361
▁pluck	-4362
▁polit	-4363
▁price	-4364
▁pride	-4365
▁shake	-4366
▁shelf	-4367
▁shirt	-4368
▁slept	-4369
▁snake	-4370
▁sneer	-4371
▁snuff	-4372
▁solid	-4373
▁south	-4374
▁speed	-4375
▁swept	-4376
▁worse	-4377
Project	-4378
cellent	-4379
icherry	-4380
licable	-4381
ogether	-4382
oundrel	-4383
ronicle	-4384
unction	-4385
▁Dundee	-4386
▁Fowler	-4387
▁Friday	-4388
▁HOLMES	-4389
▁Heaven	-4390
▁Indian	-4391
▁Kindly	-4392
▁Leaden	-4393
▁Millar	-4394
▁Surrey	-4395
▁altern	-4396
▁ascend	-4397
▁asleep	-4398
▁attend	-4399
▁author	-4400
▁averse	-4401
▁blinds	-4402
▁bonnet	-4403
▁bought	-4404
▁bricks	-4405
▁bundle	-4406
▁burned	-4407
▁cabman	-4408
▁cigars	-4409
▁cocked	-4410
▁daring	-4411
▁doubts	-4412
▁enthus	-4413
▁especi	-4414
▁exchan	-4415
▁fitted	-4416
▁folded	-4417
▁format	-4418
▁fourth	-4419
▁golden	-4420
▁handed	-4421
▁hearty	-4422
▁height	-4423
▁invent	-4424
▁leaned	-4425
▁leaves	-4426
▁listen	-4427
▁lovely	-4428
▁medium	-4429
▁member	-4430
▁needed	-4431
▁peeped	-4432
▁prison	-4433
▁recomm	-4434
▁regret	-4435
▁safety	-4436
▁sallow	-4437
▁season	-4438
▁seldom	-4439
▁severe	-4440
▁status	-4441
▁supply	-4442
▁surely	-4443
▁system	-4444
▁tinted	-4445
▁tossed	-4446
▁tracks	-4447
▁ulster	-4448
▁unable	-4449
▁unique	-4450
▁victim	-4451
▁volume	-4452
▁wealth	-4453
▁wicked	-4454
▁wishes	-4455
▁worked	-4456
▁Austral	-4457
▁Godfrey	-4458
▁Vincent	-4459
▁William	-4460
▁anxiety	-4461
▁ashamed	-4462
▁burning	-4463
▁capable	-4464
▁capital	-4465
▁changed	-4466
▁cigaret	-4467
▁complim	-4468
▁contain	-4469
▁cripple	-4470
▁deduced	-4471
▁deepest	-4472
▁deposit	-4473
▁discuss	-4474
▁emotion	-4475
▁escaped	-4476
▁evident	-4477
▁excited	-4478
▁fancies	-4479
▁foolish	-4480
▁gesture	-4481
▁grasped	-4482
▁leather	-4483
▁meaning	-4484
▁mistake	-4485
▁perplex	-4486
▁playing	-4487
▁plumber	-4488
▁puzzled	-4489
▁quarrel	-4490
▁quickly	-4491
▁rapidly	-4492
▁rattled	-4493
▁reading	-4494
▁rushing	-4495
▁similar	-4496
▁sleeves	-4497
▁special	-4498
▁sundial	-4499
▁support	-4500
▁tapping	-4501
▁tragedy	-4502
▁unknown	-4503
▁visible	-4504
ertaining	-4505
ncyclopæd	-4506
▁Aloysius	-4507
▁Ballarat	-4508
▁Savannah	-4509
▁Victoria	-4510
▁addition	-4511
▁announce	-4512
▁arranged	-4513
▁attempts	-4514
▁brightly	-4515
▁ceremony	-4516
▁contrast	-4517
▁delicacy	-4518
▁deserted	-4519
▁disguise	-4520
▁editions	-4521
▁everyone	-4522
▁expenses	-4523
▁families	-4524
▁injuries	-4525
▁instance	-4526
▁intimate	-4527
▁kindness	-4528
▁landlord	-4529
▁laughter	-4530
▁lounging	-4531
▁metallic	-4532
▁midnight	-4533
▁original	-4534
▁postmark	-4535
▁promised	-4536
▁quarters	-4537
▁reported	-4538
▁soothing	-4539
▁striking	-4540
▁strongly	-4541
▁struggle	-4542
▁surround	-4543
▁telegram	-4544
▁terribly	-4545
▁unlocked	-4546
▁watching	-4547
▁whiskers	-4548
ondicherry	-4549
▁Inspector	-4550
▁agitation	-4551
▁announced	-4552
▁attracted	-4553
▁carbuncle	-4554
▁congratul	-4555
▁determine	-4556
▁earnestly	-4557
▁existence	-4558
▁generally	-4559
▁gentlemen	-4560
▁governess	-4561
▁hurriedly	-4562
▁impatient	-4563
▁incidents	-4564
▁innocence	-4565
▁necessary	-4566
▁newspaper	-4567
▁otherwise	-4568
▁protected	-4569
▁providing	-4570
▁questions	-4571
▁satisfied	-4572
▁scoundrel	-4573
▁seriously	-4574
▁signature	-4575
▁wonderful	-4576
▁wondering	-4577
ncyclopædia	-4578
▁Leadenhall	-4579
▁adventures	-4580
▁apparently	-4581
▁collection	-4582
▁completely	-4583
▁compliance	-4584
▁confidence	-4585
▁conjecture	-4586
▁conviction	-4587
▁distribute	-4588
▁especially	-4589
▁eventually	-4590
▁expedition	-4591
▁mysterious	-4592
▁precaution	-4593
▁protruding	-4594
▁recognised	-4595
▁remembered	-4596
▁suspicious	-4597
▁comfortable	-4598
▁communicate	-4599
▁continually	-4600
▁discoloured	-4601
▁particulars	-4602
▁respectable	-4603
▁sensational	-4604
▁Breckinridge	-4605
▁intellectual	-4606
▁satisfaction	-4607
▁disappointment	-4608
.8	-4609
5.	-4610
7,	-4611
9,	-4612
90	-4613
AB	-4614
AC	-4615
AD	-4616
De	-4617
IN	-4618
LO	-4619
NC	-4620
NY	-4621
Re	-4622
Th	-4623
UE	-4624
VE	-4625
hy	-4626
ré	-4627
tw	-4628
ze	-4629
”—	-4630
▁7	-4631
▁z	-4632
▁•	-4633
***	-4634
:15	-4635
All	-4636
EAR	-4637
May	-4638
anu	-4639
arl	-4640
bby	-4641
bid	-4642
bor	-4643
can	-4644
car	-4645
dge	-4646
eds	-4647
een	-4648
ein	-4649
gar	-4650
gue	-4651
hon	-4652
ien	-4653
len	-4654
mon	-4655
omp	-4656
oon	-4657
ope	-4658
oug	-4659
oup	-4660
pow	-4661
ppy	-4662
pro	-4663
rom	-4664
sis	-4665
ugh	-4666
uly	-4667
▁Ag	-4668
▁Am	-4669
▁Ap	-4670
▁Cl	-4671
▁Ox	-4672
▁Pr	-4673
▁ST	-4674
▁fi	-4675
▁od	-4676
▁ut	-4677
ARRA	-4678
BERG	-4679
JECT	-4680
LOCK	-4681
Look	-4682
Lord	-4683
UTEN	-4684
acle	-4685
alse	-4686
anch	-4687
arre	-4688
aths	-4689
aver	-4690
come	-4691
eler	-4692
even	-4693
eyed	-4694
fere	-4695
geon	-4696
gest	-4697
gled	-4698
hern	-4699
hire	-4700
ians	-4701
iest	-4702
inea	-4703
iser	-4704
itan	-4705
iven	-4706
lamp	-4707
lesh	-4708
liri	-4709
long	-4710
mple	-4711
omed	-4712
open	-4713
orne	-4714
orth	-4715
orts	-4716
ours	-4717
quet	-4718
race	-4719
rase	-4720
sequ	-4721
ullo	-4722
unes	-4723
uses	-4724
uson	-4725
what	-4726
zzle	-4727
▁***	-4728
▁ANY	-4729
▁Any	-4730
▁Are	-4731
▁Bet	-4732
▁Car	-4733
▁Cha	-4734
▁DIS	-4735
▁Far	-4736
▁Gra	-4737
▁Har	-4738
▁Hud	-4739
▁Inn	-4740
▁Isa	-4741
▁Man	-4742
▁May	-4743
▁Par	-4744
▁Tem	-4745
▁Und	-4746
▁VII	-4747
▁aut	-4748
▁bee	-4749
▁biz	-4750
▁bod	-4751
▁din	-4752
▁eat	-4753
▁ecc	-4754
▁enc	-4755
▁fad	-4756
▁fil	-4757
▁fow	-4758
▁gig	-4759
▁hol	-4760
▁isn	-4761
▁iss	-4762
▁lur	-4763
▁org	-4764
▁pip	-4765
▁rad	-4766
▁rue	-4767
▁sky	-4768
▁sob	-4769
▁som	-4770
▁spl	-4771
▁tro	-4772
▁unn	-4773
▁ves	-4774
▁vig	-4775
▁vul	-4776
▁wet	-4777
ading	-4778
ament	-4779
aming	-4780
apers	-4781
arest	-4782
break	-4783
bsite	-4784
court	-4785
ctive	-4786
ember	-4787
eness	-4788
erget	-4789
erial	-4790
erved	-4791
eyond	-4792
hable	-4793
happy	-4794
icket	-4795
idesp	-4796
iforn	-4797
inate	-4798
inder	-4799
irect	-4800
iters	-4801
iving	-4802
liest	-4803
moral	-4804
osure	-4805
oting	-4806
otted	-4807
ource	-4808
paper	-4809
pired	-4810
point	-4811
poses	-4812
raint	-4813
reath	-4814
rison	-4815
ropol	-4816
shine	-4817
stein	-4818
unken	-4819
ushes	-4820
▁Berk	-4821
▁Ferg	-4822
▁Give	-4823
▁Hall	-4824
▁Hugh	-4825
▁Janu	-4826
▁Kate	-4827
▁Park	-4828
▁Post	-4829
▁SHER	-4830
▁abst	-4831
▁bare	-4832
▁bars	-4833
▁chat	-4834
▁comb	-4835
▁cool	-4836
▁cous	-4837
▁desk	-4838
▁dign	-4839
▁diss	-4840
▁dram	-4841
▁educ	-4842
▁fasc	-4843
▁fees	-4844
▁flew	-4845
▁gale	-4846
▁gaze	-4847
▁inex	-4848
▁jump	-4849
▁king	-4850
▁lash	-4851
▁libr	-4852
▁lids	-4853
▁lust	-4854
▁mess	-4855
▁mill	-4856
▁mort	-4857
▁penc	-4858
▁pile	-4859
▁pink	-4860
▁rabb	-4861
▁rail	-4862
▁rang	-4863
▁risk	-4864
▁rope	-4865
▁scar	-4866
▁sear	-4867
▁seek	-4868
▁shag	-4869
▁sick	-4870
▁skyl	-4871
▁stir	-4872
▁stoo	-4873
▁subm	-4874
▁surv	-4875
▁thus	-4876
▁torn	-4877
▁unne	-4878
▁vain	-4879
▁vile	-4880
▁whar	-4881
▁wire	-4882
▁yawn	-4883
ARRANT	-4884
Frisco	-4885
Really	-4886
Surely	-4887
ateful	-4888
atural	-4889
ending	-4890
eneral	-4891
ension	-4892
entric	-4893
erable	-4894
factor	-4895
ifying	-4896
incing	-4897
iously	-4898
ishing	-4899
jected	-4900
laimed	-4901
lapsed	-4902
legged	-4903
llable	-4904
nesday	-4905
ormous	-4906
ougham	-4907
oulton	-4908
regard	-4909
retion	-4910
rified	-4911
twenty	-4912
utable	-4913
vesend	-4914
washed	-4915
▁After	-4916
▁Boots	-4917
▁Could	-4918
▁Crown	-4919
▁GUTEN	-4920
▁Helen	-4921
▁Hotel	-4922
▁House	-4923
▁India	-4924
▁Major	-4925
▁Three	-4926
▁Would	-4927
▁aband	-4928
▁ashes	-4929
▁avoid	-4930
▁beard	-4931
▁bears	-4932
▁begun	-4933
▁bland	-4934
▁bless	-4935
▁blunt	-4936
▁borne	-4937
▁boxes	-4938
▁brain	-4939
▁bulky	-4940
▁cease	-4941
▁chill	-4942
▁civil	-4943
▁clerk	-4944
▁coach	-4945
▁crisp	-4946
▁dated	-4947
▁dates	-4948
▁debts	-4949
▁dense	-4950
▁drift	-4951
▁dwell	-4952
▁ended	-4953
▁equal	-4954
▁erect	-4955
▁faint	-4956
▁false	-4957
▁fatal	-4958
▁fight	-4959
▁finds	-4960
▁fists	-4961
▁flesh	-4962
▁flush	-4963
▁fully	-4964
▁glove	-4965
▁gossi	-4966
▁grace	-4967
▁group	-4968
▁guide	-4969
▁guilt	-4970
▁hoped	-4971
▁imbec	-4972
▁indul	-4973
▁inner	-4974
▁inval	-4975
▁invar	-4976
▁judge	-4977
▁knock	-4978
▁level	-4979
▁lined	-4980
▁linen	-4981
▁links	-4982
▁loves	-4983
▁monot	-4984
▁moved	-4985
▁novel	-4986
▁outst	-4987
▁print	-4988
▁risen	-4989
▁roads	-4990
▁scraw	-4991
▁shiny	-4992
▁shows	-4993
▁solic	-4994
▁spect	-4995
▁stage	-4996
▁stare	-4997
▁steel	-4998
▁stock	-4999
▁swung	-5000
▁teeth	-5001
▁tight	-5002
▁twist	-5003
▁walks	-5004
▁waste	-5005
▁waved	-5006
▁widow	-5007
attened	-5008
brimmed	-5009
bsolute	-5010
ederate	-5011
entions	-5012
ergetic	-5013
inguish	-5014
othesis	-5015
reatham	-5016
reshold	-5017
ressive	-5018
retched	-5019
wheeler	-5020
▁Avenue	-5021
▁Bridge	-5022
▁Covent	-5023
▁During	-5024
▁Hudson	-5025
▁Morcar	-5026
▁Oxford	-5027
▁Temple	-5028
▁Totten	-5029
▁accomp	-5030
▁accord	-5031
▁acting	-5032
▁active	-5033
▁agency	-5034
▁animal	-5035
▁apiece	-5036
▁baboon	-5037
▁basket	-5038
▁beryls	-5039
▁boards	-5040
▁bridge	-5041
▁carpet	-5042
▁choked	-5043
▁choose	-5044
▁comput	-5045
▁contro	-5046
▁copper	-5047
▁crimes	-5048
▁deeper	-5049
▁deliri	-5050
▁desper	-5051
▁develo	-5052
▁dinner	-5053
▁dishon	-5054
▁driver	-5055
▁easier	-5056
▁errand	-5057
▁forbid	-5058
▁fringe	-5059
▁giving	-5060
▁gravel	-5061
▁highly	-5062
▁hollow	-5063
▁homely	-5064
▁horses	-5065
▁inform	-5066
▁jacket	-5067
▁joking	-5068
▁labour	-5069
▁landau	-5070
▁lining	-5071
▁maiden	-5072
▁manage	-5073
▁motive	-5074
▁moving	-5075
▁newcom	-5076
▁nights	-5077
▁nodded	-5078
▁online	-5079
▁opport	-5080
▁perpet	-5081
▁phrase	-5082
▁plenty	-5083
▁proved	-5084
▁purely	-5085
▁quarre	-5086
▁rattle	-5087
▁resist	-5088
▁richer	-5089
▁safely	-5090
▁savage	-5091
▁school	-5092
▁shaken	-5093
▁shriek	-5094
▁smoked	-5095
▁smooth	-5096
▁sombre	-5097
▁sooner	-5098
▁sounds	-5099
▁stated	-5100
▁subtle	-5101
▁suffer	-5102
▁thinks	-5103
▁tongue	-5104
▁trifle	-5105
▁uncons	-5106
▁unfore	-5107
▁upward	-5108
▁vanish	-5109
▁vessel	-5110
▁violin	-5111
▁wander	-5112
▁warmly	-5113
▁widesp	-5114
ampshire	-5115
osterous	-5116
reditary	-5117
ressions	-5118
▁British	-5119
▁Finally	-5120
▁January	-5121
▁Leather	-5122
▁Moulton	-5123
▁PROJECT	-5124
▁WARRANT	-5125
▁absence	-5126
▁accused	-5127
▁actions	-5128
▁arrange	-5129
▁article	-5130
▁begging	-5131
▁bizarre	-5132
▁central	-5133
▁clapped	-5134
▁comprom	-5135
▁confirm	-5136
▁contact	-5137
▁crossed	-5138
▁crowded	-5139
▁dignity	-5140
▁dragged	-5141
▁draught	-5142
▁drunken	-5143
▁eagerly	-5144
▁elastic	-5145
▁elderly	-5146
▁feather	-5147
▁figures	-5148
▁flushed	-5149
▁forming	-5150
▁gaiters	-5151
▁glances	-5152
▁hideous	-5153
▁inquest	-5154
▁inquire	-5155
▁inspect	-5156
▁largest	-5157
▁liberty	-5158
▁matches	-5159
▁moments	-5160
▁partner	-5161
▁peering	-5162
▁pierced	-5163
▁portion	-5164
▁produce	-5165
▁protect	-5166
▁protest	-5167
▁puffing	-5168
▁pulling	-5169
▁receipt	-5170
▁respond	-5171
▁respons	-5172
▁returns	-5173
▁rubbing	-5174
▁sailing	-5175
▁sharply	-5176
▁stained	-5177
▁staying	-5178
▁suicide	-5179
▁surgeon	-5180
▁tangled	-5181
▁trained	-5182
▁treated	-5183
▁unhappy	-5184
▁utterly	-5185
▁website	-5186
▁wrapped	-5187
Excellent	-5188
▁Balmoral	-5189
▁Bohemian	-5190
▁Californ	-5191
▁Ferguson	-5192
▁Hereford	-5193
▁SHERLOCK	-5194
▁accepted	-5195
▁allusion	-5196
▁analysis	-5197
▁anywhere	-5198
▁articles	-5199
▁brougham	-5200
▁charming	-5201
▁chemical	-5202
▁clutched	-5203
▁confined	-5204
▁contents	-5205
▁cupboard	-5206
▁deceased	-5207
▁describe	-5208
▁directed	-5209
▁disclaim	-5210
▁discover	-5211
▁disgrace	-5212
▁enormous	-5213
▁exposure	-5214
▁extended	-5215
▁footfall	-5216
▁formerly	-5217
▁fourteen	-5218
▁friendly	-5219
▁garments	-5220
▁gigantic	-5221
▁greeting	-5222
▁handsome	-5223
▁hardened	-5224
▁hurrying	-5225
▁imprison	-5226
▁included	-5227
▁informed	-5228
▁landlady	-5229
▁material	-5230
▁mistress	-5231
▁muttered	-5232
▁observer	-5233
▁occupant	-5234
▁overcoat	-5235
▁perceive	-5236
▁pitiable	-5237
▁platform	-5238
▁promises	-5239
▁propriet	-5240
▁reaction	-5241
▁searched	-5242
▁separate	-5243
▁services	-5244
▁skylight	-5245
▁solemnly	-5246
▁starting	-5247
▁treasure	-5248
▁trifling	-5249
▁troubles	-5250
▁twinkled	-5251
▁visitors	-5252
▁wandered	-5253
▁wrinkled	-5254
▁Berkshire	-5255
▁GUTENBERG	-5256
▁Gravesend	-5257
▁Rucastles	-5258
▁Streatham	-5259
▁Tottenham	-5260
▁Wednesday	-5261
▁admirably	-5262
▁affection	-5263
▁answering	-5264
▁apartment	-5265
▁associate	-5266
▁cigarette	-5267
▁colleague	-5268
▁completed	-5269
▁confessed	-5270
▁criminals	-5271
▁delighted	-5272
▁destroyed	-5273
▁disturbed	-5274
▁doubtless	-5275
▁eccentric	-5276
▁energetic	-5277
▁expensive	-5278
▁fireplace	-5279
▁forgotten	-5280
▁increased	-5281
▁interests	-5282
▁interfere	-5283
▁introduce	-5284
▁mentioned	-5285
▁miserable	-5286
▁observing	-5287
▁policeman	-5288
▁principal	-5289
▁recognise	-5290
▁regretted	-5291
▁represent	-5292
▁submitted	-5293
▁succeeded	-5294
▁threshold	-5295
▁tradesmen	-5296
▁uncertain	-5297
▁unnatural	-5298
▁abstracted	-5299
▁advantages	-5300
▁companions	-5301
▁conditions	-5302
▁confession	-5303
▁deductions	-5304
▁disappoint	-5305
▁displaying	-5306
▁ejaculated	-5307
▁engagement	-5308
▁forefinger	-5309
▁hereditary	-5310
▁hypothesis	-5311
▁inferences	-5312
▁introspect	-5313
▁neighbours	-5314
▁newspapers	-5315
▁occasional	-5316
▁occupation	-5317
▁paragraphs	-5318
▁personally	-5319
▁plantation	-5320
▁themselves	-5321
▁unforeseen	-5322
▁volunteers	-5323
▁widespread	-5324
▁yourselves	-5325
Encyclopædia	-5326
▁Information	-5327
▁Leatherhead	-5328
▁Pondicherry	-5329
▁approaching	-5330
▁beautifully	-5331
▁distinguish	-5332
▁distributed	-5333
▁disturbance	-5334
▁exceptional	-5335
▁generations	-5336
▁possibility	-5337
▁typewriting	-5338
▁unconscious	-5339
▁unnecessary	-5340
▁whitewashed	-5341
▁congratulate	-5342
▁preposterous	-5343
▁requirements	-5344
▁communication	-5345
▁consciousness	-5346
▁inconvenience	-5347
▁commissionaire	-5348
.7	-5349
9.	-5350
AM	-5351
IB	-5352
Or	-5353
dy	-5354
go	-5355
—‘	-5356
—’	-5357
.1.	-5358
.3.	-5359
.9.	-5360
Ent	-5361
GRE	-5362
IES	-5363
IVE	-5364
MIT	-5365
See	-5366
UNT	-5367
ald	-5368
dom	-5369
duc	-5370
edy	-5371
ero	-5372
ext	-5373
hab	-5374
hil	-5375
iah	-5376
ida	-5377
isf	-5378
lit	-5379
mbl	-5380
now	-5381
occ	-5382
ocr	-5383
oll	-5384
oms	-5385
ooh	-5386
osm	-5387
phy	-5388
pit	-5389
rem	-5390
sol	-5391
ubb	-5392
uce	-5393
ucy	-5394
ulp	-5395
unn	-5396
▁6_	-5397
▁BE	-5398
▁Be	-5399
wl	-5400
Had	-5401
etr	-5402
osp	-5403
ums	-5404
▁LE	-5405
▁MR	-5406
▁RE	-5407
▁Up	-5408
▁id	-5409
,000	-5410
ADED	-5411
AGUE	-5412
AMAG	-5413
Last	-5414
Miss	-5415
Most	-5416
Were	-5417
Will	-5418
With	-5419
ackw	-5420
aign	-5421
ails	-5422
aked	-5423
arly	-5424
aste	-5425
atty	-5426
azed	-5427
boat	-5428
born	-5429
cock	-5430
cord	-5431
crif	-5432
dict	-5433
empl	-5434
ench	-5435
etch	-5436
gent	-5437
iasm	-5438
icul	-5439
iful	-5440
illa	-5441
ills	-5442
ilty	-5443
ines	-5444
inth	-5445
irts	-5446
itle	-5447
lack	-5448
lend	-5449
lias	-5450
lony	-5451
maid	-5452
mail	-5453
neys	-5454
nine	-5455
omin	-5456
onge	-5457
opol	-5458
ored	-5459
osen	-5460
oust	-5461
oven	-5462
owry	-5463
phan	-5464
ples	-5465
pton	-5466
rain	-5467
ribe	-5468
rous	-5469
sion	-5470
step	-5471
ties	-5472
took	-5473
tory	-5474
ture	-5475
ucer	-5476
udge	-5477
uell	-5478
uffy	-5479
ulia	-5480
ulse	-5481
umed	-5482
ummy	-5483
ural	-5484
your	-5485
▁100	-5486
▁186	-5487
▁30,	-5488
▁Bec	-5489
▁Cap	-5490
▁Ced	-5491
▁Con	-5492
▁Cus	-5493
▁End	-5494
▁FOR	-5495
▁Get	-5496
▁Han	-5497
▁III	-5498
▁Jem	-5499
SC	-5500
gy	-5501
lk	-5502
ux	-5503
.3,	-5504
Con	-5505
ait	-5506
asy	-5507
did	-5508
icy	-5509
mly	-5510
ndw	-5511
pla	-5512
por	-5513
she	-5514
udy	-5515
ulf	-5516
vat	-5517
▁II	-5518
▁bi	-5519
ater	-5520
cain	-5521
ette	-5522
hery	-5523
itor	-5524
lier	-5525
olet	-5526
oors	-5527
rees	-5528
sper	-5529
vity	-5530
whis	-5531
▁Has	-5532
▁Kil	-5533
▁Mon	-5534
▁Mun	-5535
▁NOT	-5536
▁New	-5537
▁Not	-5538
▁RED	-5539
▁Reg	-5540
▁Rep	-5541
▁Sub	-5542
▁Too	-5543
▁War	-5544
▁ado	-5545
▁arg	-5546
▁awk	-5547
▁ber	-5548
▁bor	-5549
▁bou	-5550
▁bri	-5551
▁cyl	-5552
▁dem	-5553
▁dil	-5554
▁dry	-5555
▁emb	-5556
▁ens	-5557
▁fog	-5558
▁gap	-5559
▁gle	-5560
▁ing	-5561
▁inn	-5562
▁jer	-5563
▁job	-5564
▁lic	-5565
▁lux	-5566
▁map	-5567
▁nom	-5568
▁non	-5569
▁oak	-5570
▁odd	-5571
▁oil	-5572
▁ost	-5573
▁pop	-5574
▁pri	-5575
▁rif	-5576
▁rug	-5577
▁sea	-5578
▁sen	-5579
▁tap	-5580
▁tea	-5581
▁tim	-5582
▁toe	-5583
▁une	-5584
▁unp	-5585
▁vag	-5586
▁vil	-5587
▁wag	-5588
▁wax	-5589
▁web	-5590
About	-5591
Frank	-5592
Hullo	-5593
ILITY	-5594
MITED	-5595
Still	-5596
UNTER	-5597
aging	-5598
ailed	-5599
:3	-5600
An	-5601
Ar	-5602
CE	-5603
MY	-5604
ST	-5605
Sh	-5606
yr	-5607
▁-	-5608
Her	-5609
ace	-5610
cut	-5611
hou	-5612
itz	-5613
oes	-5614
▁12	-5615
▁tu	-5616
aily	-5617
five	-5618
rave	-5619
usal	-5620
▁200	-5621
▁Can	-5622
▁bas	-5623
▁hit	-5624
▁shr	-5625
agree	-5626
allel	-5627
alted	-5628
amped	-5629
anted	-5630
ardon	-5631
arlet	-5632
asses	-5633
atisf	-5634
atted	-5635
atter	-5636
bbing	-5637
brows	-5638
caine	-5639
coyed	-5640
cream	-5641
cture	-5642
dated	-5643
drive	-5644
ement	-5645
ensib	-5646
eping	-5647
heart	-5648
herry	-5649
iably	-5650
iance	-5651
icken	-5652
ieves	-5653
igate	-5654
igned	-5655
ineas	-5656
iolet	-5657
irror	-5658
isely	-5659
isive	-5660
isten	-5661
istle	-5662
itate	-5663
lared	-5664
lease	-5665
llers	-5666
maged	-5667
marks	-5668
mason	-5669
mbers	-5670
onies	-5671
onous	-5672
oping	-5673
pence	-5674
pense	-5675
posal	-5676
rance	-5677
rated	-5678
rings	-5679
rival	-5680
scill	-5681
sided	-5682
sized	-5683
tical	-5684
toned	-5685
tured	-5686
uelly	-5687
uffle	-5688
urban	-5689
uting	-5690
utral	-5691
utted	-5692
verse	-5693
yance	-5694
▁AGRE	-5695
▁Cosm	-5696
▁Crow	-5697
▁Does	-5698
▁Four	-5699
▁Free	-5700
▁June	-5701
▁Kent	-5702
▁Look	-5703
▁Lucy	-5704
▁Phil	-5705
▁Pope	-5706
▁Pres	-5707
▁Such	-5708
▁THIS	-5709
▁akin	-5710
▁aunt	-5711
▁awak	-5712
▁baff	-5713
▁barm	-5714
▁bath	-5715
▁beck	-5716
▁beef	-5717
▁beer	-5718
▁blot	-5719
▁bone	-5720
▁bred	-5721
▁cane	-5722
▁cash	-5723
▁chap	-5724
▁clas	-5725
▁cush	-5726
▁cust	-5727
▁damp	-5728
▁dise	-5729
▁dism	-5730
▁disp	-5731
▁dock	-5732
▁exer	-5733
▁fare	-5734
▁fath	-5735
▁flap	-5736
▁fled	-5737
▁fulf	-5738
▁fund	-5739
▁gall	-5740
▁gaol	-5741
▁gets	-5742
▁grie	-5743
▁grim	-5744
▁hadn	-5745
▁hint	-5746
▁hudd	-5747
▁impl	-5748
▁intu	-5749
▁item	-5750
▁jeal	-5751
▁jest	-5752
▁join	-5753
▁joke	-5754
▁knot	-5755
▁lake	-5756
▁lest	-5757
▁lime	-5758
▁limp	-5759
▁loop	-5760
▁mead	-5761
▁meal	-5762
▁meas	-5763
▁omin	-5764
▁outs	-5765
▁pack	-5766
▁plot	-5767
▁plun	-5768
▁pred	-5769
▁pure	-5770
▁qual	-5771
▁rack	-5772
▁rage	-5773
▁rare	-5774
▁rent	-5775
▁rout	-5776
▁rust	-5777
▁scen	-5778
▁scra	-5779
▁scre	-5780
▁sequ	-5781
▁shel	-5782
▁shop	-5783
▁skin	-5784
▁slit	-5785
▁snat	-5786
▁spin	-5787
▁spot	-5788
▁sums	-5789
▁swim	-5790
▁tack	-5791
▁tale	-5792
▁text	-5793
▁tout	-5794
▁trim	-5795
▁tunn	-5796
▁ungr	-5797
▁user	-5798
▁vest	-5799
▁wake	-5800
▁wash	-5801
▁wasn	-5802
▁wave	-5803
▁wink	-5804
HEADED	-5805
Stolen	-5806
anches	-5807
ancier	-5808
ancing	-5809
antial	-5810
arents	-5811
ashing	-5812
astern	-5813
backed	-5814
bedded	-5815
borate	-5816
ducing	-5817
erning	-5818
erture	-5819
guinea	-5820
iation	-5821
ically	-5822
igning	-5823
import	-5824
inders	-5825
ipment	-5826
issors	-5827
istocr	-5828
itable	-5829
ithing	-5830
jacket	-5831
lusion	-5832
mitage	-5833
opened	-5834
places	-5835
rowing	-5836
school	-5837
shaven	-5838
tinted	-5839
umping	-5840
umpled	-5841
uously	-5842
utions	-5843
yrinth	-5844
▁11:15	-5845
▁Again	-5846
▁Backw	-5847
▁Black	-5848
▁Conan	-5849
▁Cross	-5850
▁DAMAG	-5851
▁Doyle	-5852
▁Elias	-5853
▁Great	-5854
▁Hatty	-5855
▁Julia	-5856
▁March	-5857
▁Never	-5858
▁North	-5859
▁Round	-5860
▁Somet	-5861
▁Study	-5862
▁Upper	-5863
▁While	-5864
▁Yours	-5865
▁absor	-5866
▁acute	-5867
▁added	-5868
▁agony	-5869
▁alter	-5870
▁amuse	-5871
▁attic	-5872
▁avail	-5873
▁avert	-5874
▁awake	-5875
▁awful	-5876
▁berth	-5877
▁blame	-5878
▁blanc	-5879
▁blows	-5880
▁brick	-5881
▁brows	-5882
▁brute	-5883
▁built	-5884
▁bushy	-5885
▁cards	-5886
▁cared	-5887
▁chaff	-5888
▁chagr	-5889
▁chalk	-5890
▁clues	-5891
▁clump	-5892
▁coinc	-5893
▁crate	-5894
▁dazed	-5895
▁deriv	-5896
▁dowry	-5897
▁edges	-5898
▁elbow	-5899
▁enclo	-5900
▁faded	-5901
▁flung	-5902
▁footp	-5903
▁fowls	-5904
▁frame	-5905
▁freed	-5906
▁gathe	-5907
▁glare	-5908
▁gloss	-5909
▁grand	-5910
▁grate	-5911
▁grown	-5912
▁handy	-5913
▁hence	-5914
▁indis	-5915
▁ingen	-5916
▁inhab	-5917
▁keeps	-5918
▁leads	-5919
▁lucky	-5920
▁maids	-5921
▁manif	-5922
▁merry	-5923
▁midst	-5924
▁minds	-5925
▁minor	-5926
▁mixed	-5927
▁moust	-5928
▁nerve	-5929
▁offer	-5930
▁organ	-5931
▁paces	-5932
▁pains	-5933
▁paint	-5934
▁pipes	-5935
▁plate	-5936
▁plush	-5937
▁poker	-5938
▁recon	-5939
▁reeds	-5940
▁reput	-5941
▁roofs	-5942
▁roots	-5943
▁sandw	-5944
▁serve	-5945
▁shame	-5946
▁shill	-5947
▁sides	-5948
▁simpl	-5949
▁smart	-5950
▁stain	-5951
▁stake	-5952
▁steam	-5953
▁stern	-5954
▁stiff	-5955
▁storm	-5956
▁stuff	-5957
▁stump	-5958
▁style	-5959
▁subdu	-5960
▁suite	-5961
▁super	-5962
▁sympt	-5963
▁tales	-5964
▁taste	-5965
▁tempt	-5966
▁tread	-5967
▁truly	-5968
▁trunk	-5969
▁tweed	-5970
▁uncom	-5971
▁vault	-5972
▁veins	-5973
▁vigor	-5974
▁villa	-5975
▁vital	-5976
▁wages	-5977
▁whims	-5978
▁wired	-5979
▁worst	-5980
▁woven	-5981
▁wrung	-5982
achable	-5983
ardsmen	-5984
because	-5985
clothes	-5986
covered	-5987
dressed	-5988
hampton	-5989
hearted	-5990
ificent	-5991
inating	-5992
irectly	-5993
isation	-5994
iveness	-5995
ourable	-5996
pendent	-5997
perhaps	-5998
raction	-5999
ressing	-6000
ropolis	-6001
ruction	-6002
station	-6003
version	-6004
▁Albert	-6005
▁Becher	-6006
▁Beyond	-6007
▁Cedars	-6008
▁Church	-6009
▁Coburg	-6010
▁Cusack	-6011
▁Garden	-6012
▁Harrow	-6013
▁Indeed	-6014
▁LEAGUE	-6015
▁Monica	-6016
▁Within	-6017
▁abrupt	-6018
▁admire	-6019
▁afford	-6020
▁around	-6021
▁assert	-6022
▁attain	-6023
▁autumn	-6024
▁befall	-6025
▁begged	-6026
▁betray	-6027
▁bodies	-6028
▁border	-6029
▁brains	-6030
▁branch	-6031
▁bushes	-6032
▁calmly	-6033
▁candle	-6034
▁chairs	-6035
▁chosen	-6036
▁clerks	-6037
▁coarse	-6038
▁coldly	-6039
▁collap	-6040
▁cousin	-6041
▁cravat	-6042
▁degree	-6043
▁denied	-6044
▁dining	-6045
▁disrep	-6046
▁donate	-6047
▁entity	-6048
▁extent	-6049
▁factor	-6050
▁felony	-6051
▁fluffy	-6052
▁flying	-6053
▁forgot	-6054
▁genial	-6055
▁gloves	-6056
▁govern	-6057
▁guilty	-6058
▁hanged	-6059
▁happen	-6060
▁hearts	-6061
▁helped	-6062
▁higher	-6063
▁hoarse	-6064
▁horrid	-6065
▁hurled	-6066
▁impert	-6067
▁improb	-6068
▁imprud	-6069
▁injury	-6070
▁jumped	-6071
▁killed	-6072
▁ladder	-6073
▁ledger	-6074
▁levers	-6075
▁limits	-6076
▁loafer	-6077
▁losing	-6078
▁louder	-6079
▁loving	-6080
▁lumber	-6081
▁magist	-6082
▁merest	-6083
▁morose	-6084
▁mostly	-6085
▁nearer	-6086
▁neatly	-6087
▁necess	-6088
▁orders	-6089
▁orphan	-6090
▁pacing	-6091
▁patent	-6092
▁paused	-6093
▁pencil	-6094
▁penetr	-6095
▁pillow	-6096
▁pledge	-6097
▁poured	-6098
▁preced	-6099
▁prices	-6100
▁promin	-6101
▁prosec	-6102
▁purple	-6103
▁regist	-6104
▁rested	-6105
▁retain	-6106
▁retire	-6107
▁reveal	-6108
▁rights	-6109
▁roughs	-6110
▁roused	-6111
▁rubbed	-6112
▁rubber	-6113
▁sacrif	-6114
▁saucer	-6115
▁sealed	-6116
▁select	-6117
▁sheets	-6118
▁signed	-6119
▁silver	-6120
▁simply	-6121
▁sleepy	-6122
▁sleeve	-6123
▁social	-6124
▁softly	-6125
▁sorrow	-6126
▁splash	-6127
▁splend	-6128
▁spread	-6129
▁stalls	-6130
▁strang	-6131
▁submit	-6132
▁summer	-6133
▁tallow	-6134
▁tapped	-6135
▁throws	-6136
▁ticket	-6137
▁travel	-6138
▁trough	-6139
▁tugged	-6140
▁utmost	-6141
▁vilest	-6142
▁visits	-6143
▁voices	-6144
▁vulgar	-6145
▁wasted	-6146
▁wrists	-6147
▁writer	-6148
▁yelled	-6149
Absolute	-6150
Entirely	-6151
atisfied	-6152
buttoned	-6153
daughter	-6154
opolitan	-6155
powering	-6156
uttering	-6157
vidently	-6158
▁Between	-6159
▁Crowder	-6160
▁Florida	-6161
▁Francis	-6162
▁General	-6163
▁Kilburn	-6164
▁LIMITED	-6165
▁Scarlet	-6166
▁aroused	-6167
▁average	-6168
▁awkward	-6169
▁baffled	-6170
▁banking	-6171
▁barmaid	-6172
▁beating	-6173
▁beeches	-6174
▁belongs	-6175
▁bending	-6176
▁besides	-6177
▁blandly	-6178
▁blocked	-6179
▁blowing	-6180
▁bouquet	-6181
▁brushed	-6182
▁buttons	-6183
▁carries	-6184
▁causing	-6185
▁charged	-6186
▁chimney	-6187
▁clearer	-6188
▁clients	-6189
▁cocaine	-6190
▁comical	-6191
▁complex	-6192
▁concent	-6193
▁consequ	-6194
▁costume	-6195
▁cracked	-6196
▁creases	-6197
▁cruelly	-6198
▁cruelty	-6199
▁crushed	-6200
▁curling	-6201
▁current	-6202
▁curtain	-6203
▁custody	-6204
▁decided	-6205
▁decline	-6206
▁decoyed	-6207
▁depends	-6208
▁derived	-6209
▁destroy	-6210
▁disease	-6211
▁doctors	-6212
▁drawers	-6213
▁effects	-6214
▁elapsed	-6215
▁element	-6216
▁entreat	-6217
▁epistle	-6218
▁exalted	-6219
▁exposed	-6220
▁flashed	-6221
▁footing	-6222
▁foreign	-6223
▁foresee	-6224
▁forgive	-6225
▁frantic	-6226
▁gravity	-6227
▁groaned	-6228
▁guineas	-6229
▁heading	-6230
▁hearing	-6231
▁history	-6232
▁huddled	-6233
▁indoors	-6234
▁insight	-6235
▁keenest	-6236
▁knocked	-6237
▁landing	-6238
▁leading	-6239
▁library	-6240
▁limited	-6241
▁logical	-6242
▁lounged	-6243
▁measure	-6244
▁million	-6245
▁motives	-6246
▁neutral	-6247
▁nominal	-6248
▁ominous	-6249
▁parents	-6250
▁passers	-6251
▁pennies	-6252
▁pleased	-6253
▁precise	-6254
▁prepare	-6255
▁pressed	-6256
▁prolong	-6257
▁pursued	-6258
▁pushing	-6259
▁railway	-6260
▁raising	-6261
▁realise	-6262
▁refusal	-6263
▁regular	-6264
▁repairs	-6265
▁replied	-6266
▁reserve	-6267
▁routine	-6268
▁rumours	-6269
▁satisfy	-6270
▁scuffle	-6271
▁seconds	-6272
▁secured	-6273
▁service	-6274
▁sharing	-6275
▁sinking	-6276
▁slammed	-6277
▁sleeper	-6278
▁smoking	-6279
▁spotted	-6280
▁stately	-6281
▁stories	-6282
▁strikes	-6283
▁summons	-6284
▁takings	-6285
▁tearing	-6286
▁tension	-6287
▁thieves	-6288
▁tightly	-6289
▁useless	-6290
▁uttered	-6291
▁variety	-6292
▁verdict	-6293
▁visited	-6294
▁wanting	-6295
▁wearing	-6296
▁whoever	-6297
▁widower	-6298
▁withdra	-6299
▁writhed	-6300
▁younger	-6301
Yesterday	-6302
ification	-6303
important	-6304
operation	-6305
▁Armitage	-6306
▁accounts	-6307
▁aperture	-6308
▁aristocr	-6309
▁ascended	-6310
▁attached	-6311
▁attacked	-6312
▁awakened	-6313
▁battered	-6314
▁bedrooms	-6315
▁believed	-6316
▁branches	-6317
▁buttoned	-6318
▁campaign	-6319
▁chambers	-6320
▁coachman	-6321
▁composed	-6322
▁contempl	-6323
▁creating	-6324
▁crumpled	-6325
▁dangling	-6326
▁declared	-6327
▁deserved	-6328
▁disagree	-6329
▁district	-6330
▁dramatic	-6331
▁drooping	-6332
▁electric	-6333
▁employed	-6334
▁employer	-6335
▁entering	-6336
▁experien	-6337
▁eyebrows	-6338
▁fortunes	-6339
▁gathered	-6340
▁hastened	-6341
▁helpless	-6342
▁homeward	-6343
▁hundreds	-6344
▁ignorant	-6345
▁imbecile	-6346
▁impunity	-6347
▁incisive	-6348
▁indebted	-6349
▁indicate	-6350
▁infinite	-6351
▁inquired	-6352
▁judgment	-6353
▁lengthen	-6354
▁meantime	-6355
▁measured	-6356
▁minutely	-6357
▁moisture	-6358
▁movement	-6359
▁murdered	-6360
▁opposite	-6361
▁parallel	-6362
▁payments	-6363
▁persuade	-6364
▁pictures	-6365
▁powerful	-6366
▁pressure	-6367
▁produced	-6368
▁profound	-6369
▁purposes	-6370
▁reaching	-6371
▁recalled	-6372
▁register	-6373
▁reigning	-6374
▁relation	-6375
▁required	-6376
▁research	-6377
▁resolute	-6378
▁respects	-6379
▁revealed	-6380
▁ruefully	-6381
▁rummaged	-6382
▁scissors	-6383
▁scrawled	-6384
▁shouting	-6385
▁silently	-6386
▁sleeping	-6387
▁slippers	-6388
▁speckled	-6389
▁speedily	-6390
▁stepping	-6391
▁stirring	-6392
▁strolled	-6393
▁stronger	-6394
▁training	-6395
▁troubled	-6396
▁uncontro	-6397
▁unlikely	-6398
▁warnings	-6399
▁whenever	-6400
▁whipcord	-6401
▁writhing	-6402
▁Backwater	-6403
▁Hampshire	-6404
▁McCarthys	-6405
▁Presently	-6406
▁Windigate	-6407
▁abandoned	-6408
▁admirable	-6409
▁allowance	-6410
▁annoyance	-6411
▁attempted	-6412
▁broadened	-6413
▁chronicle	-6414
▁complying	-6415
▁concealed	-6416
▁crackling	-6417
▁defective	-6418
▁desperate	-6419
▁directors	-6420
▁discovery	-6421
▁displayed	-6422
▁disregard	-6423
▁education	-6424
▁enclosure	-6425
▁equipment	-6426
▁establish	-6427
▁exclaimed	-6428
▁flattered	-6429
▁footmarks	-6430
▁fortnight	-6431
▁glimmered	-6432
▁guardsmen	-6433
▁happiness	-6434
▁hesitated	-6435
▁ignorance	-6436
▁immediate	-6437
▁immensely	-6438
▁inhabited	-6439
▁instincts	-6440
▁labyrinth	-6441
▁listening	-6442
▁monograph	-6443
▁moonlight	-6444
▁moonshine	-6445
▁murderous	-6446
▁mysteries	-6447
▁objection	-6448
▁obtaining	-6449
▁obviously	-6450
▁possessed	-6451
▁protruded	-6452
▁realising	-6453
▁redistrib	-6454
▁relations	-6455
▁relatives	-6456
▁remaining	-6457
▁residence	-6458
▁responded	-6459
▁royalties	-6460
▁searching	-6461
▁senseless	-6462
▁springing	-6463
▁strongest	-6464
▁struggled	-6465
▁suspected	-6466
▁terrified	-6467
▁thousands	-6468
▁trembling	-6469
▁vanishing	-6470
▁wandering	-6471
▁Adventures	-6472
▁California	-6473
▁Englishman	-6474
▁accomplish	-6475
▁advertised	-6476
▁altogether	-6477
▁applicable	-6478
▁attentions	-6479
▁benefactor	-6480
▁carelessly	-6481
▁compliment	-6482
▁compressed	-6483
▁concerning	-6484
▁constables	-6485
▁consulting	-6486
▁convincing	-6487
▁derivative	-6488
▁descending	-6489
▁difference	-6490
▁discretion	-6491
▁enthusiasm	-6492
▁faithfully	-6493
▁inspection	-6494
▁invaluable	-6495
▁invariably	-6496
▁limitation	-6497
▁magnifying	-6498
▁metropolis	-6499
▁monotonous	-6500
▁objections	-6501
▁performing	-6502
▁perplexity	-6503
▁presumably	-6504
▁proprietor	-6505
▁punishment	-6506
▁recompense	-6507
▁remarkably	-6508
▁reputation	-6509
▁resolution	-6510
▁stretching	-6511
▁successive	-6512
▁surrounded	-6513
▁suspicions	-6514
▁sweetheart	-6515
▁typewriter	-6516
▁understood	-6517
▁ungrateful	-6518
▁vigorously	-6519
▁Southampton	-6520
▁authorities	-6521
▁compunction	-6522
▁confederate	-6523
▁conjectured	-6524
▁considering	-6525
▁contraction	-6526
▁discovering	-6527
▁dishonoured	-6528
▁ejaculation	-6529
▁fascinating	-6530
▁housekeeper	-6531
▁imagination	-6532
▁impatiently	-6533
▁impressions	-6534
▁independent	-6535
▁instructive	-6536
▁opportunity	-6537
▁penetrating	-6538
▁practically	-6539
▁presumption	-6540
▁probability	-6541
▁proceedings	-6542
▁replacement	-6543
▁wonderfully	-6544
▁Cosmopolitan	-6545
▁announcement	-6546
▁aristocratic	-6547
▁arrangements	-6548
▁ascertaining	-6549
▁difficulties	-6550
▁disappointed	-6551
▁disreputable	-6552
▁dissatisfied	-6553
▁imprisonment	-6554
▁neighbouring	-6555
▁overpowering	-6556
▁thoughtfully	-6557
▁introspective	-6558
▁unfortunately	-6559
▁investigations	-6560
▁uncontrollable	-6561
▁characteristics	-6562
.8.	-6563
ACH	-6564
AND	-6565
Any	-6566
CEN	-6567
ERY	-6568
Exc	-6569
ION	-6570
IRE	-6571
ITH	-6572
OSE	-6573
RIB	-6574
amb	-6575
cli	-6576
ecy	-6577
gia	-6578
hib	-6579
mat	-6580
opk	-6581
▁2.	-6582
▁20	-6583
▁26	-6584
▁2_	-6585
▁50	-6586
▁90	-6587
▁Qu	-6588
▁Re	-6589
▁UT	-6590
▁XI	-6591
Alas	-6592
DEAR	-6593
Dear	-6594
Many	-6595
Pooh	-6596
SCII	-6597
Sold	-6598
Star	-6599
bu	-6600
lph	-6601
tub	-6602
▁27	-6603
▁8_	-6604
▁Es	-6605
▁Kn	-6606
DENT	-6607
Such	-6608
TRIB	-6609
_.’”	-6610
avia	-6611
axim	-6612
bird	-6613
bove	-6614
bser	-6615
comp	-6616
crop	-6617
dges	-6618
dgew	-6619
does	-6620
door	-6621
efly	-6622
egro	-6623
eryl	-6624
itiz	-6625
ivor	-6626
lebr	-6627
mbre	-6628
mews	-6629
mois	-6630
occo	-6631
onym	-6632
ords	-6633
otes	-6634
rify	-6635
rils	-6636
shop	-6637
ulpr	-6638
umul	-6639
wels	-6640
wild	-6641
year	-6642
zier	-6643
▁10,	-6644
▁Esq	-6645
▁Gaz	-6646
▁Hum	-6647
▁IND	-6648
▁Klu	-6649
▁Spe	-6650
▁Thr	-6651
▁Van	-6652
▁WIL	-6653
▁ant	-6654
▁avo	-6655
▁cub	-6656
▁dup	-6657
▁jaw	-6658
▁jov	-6659
▁mix	-6660
▁pee	-6661
▁rig	-6662
▁sna	-6663
▁toy	-6664
▁’85	-6665
ATION	-6666
Ample	-6667
CENSE	-6668
EMENT	-6669
IRECT	-6670
Irene	-6671
REACH	-6672
acles	-6673
after	-6674
agger	-6675
aired	-6676
amond	-6677
arsaw	-6678
assel	-6679
astle	-6680
athet	-6681
ators	-6682
avely	-6683
berde	-6684
blood	-6685
carte	-6686
clips	-6687
cribe	-6688
ecret	-6689
ekiah	-6690
enger	-6691
ernal	-6692
hered	-6693
icted	-6694
iform	-6695
iftly	-6696
illeg	-6697
inery	-6698
ladst	-6699
alf	-6700
elt	-6701
nez	-6702
omy	-6703
▁10	-6704
▁14	-6705
cial	-6706
coal	-6707
high	-6708
mile	-6709
need	-6710
osom	-6711
zily	-6712
▁10_	-6713
▁scr	-6714
apole	-6715
arily	-6716
ctial	-6717
ggard	-6718
ially	-6719
icial	-6720
lphia	-6721
mpled	-6722
nderg	-6723
nical	-6724
ogram	-6725
olted	-6726
omple	-6727
oning	-6728
oried	-6729
oughf	-6730
ounce	-6731
outré	-6732
pings	-6733
posed	-6734
proof	-6735
ptoes	-6736
quest	-6737
resno	-6738
roach	-6739
rooms	-6740
rophe	-6741
stead	-6742
steps	-6743
ubbub	-6744
useum	-6745
which	-6746
xcept	-6747
yalty	-6748
▁1869	-6749
▁1890	-6750
▁Apri	-6751
▁Brad	-6752
▁Char	-6753
▁DEAR	-6754
▁Dock	-6755
▁Draw	-6756
▁High	-6757
▁Jump	-6758
▁Klux	-6759
▁Kram	-6760
▁Lanc	-6761
▁Many	-6762
▁Mont	-6763
▁Morr	-6764
▁Once	-6765
▁Parr	-6766
▁STAR	-6767
▁Shol	-6768
▁Sign	-6769
▁THAT	-6770
▁Viol	-6771
▁WITH	-6772
▁army	-6773
▁baby	-6774
▁beds	-6775
▁blaz	-6776
▁blew	-6777
▁borr	-6778
▁crib	-6779
▁cuff	-6780
▁curt	-6781
▁cuts	-6782
▁dank	-6783
▁dren	-6784
▁elig	-6785
▁emig	-6786
▁enjo	-6787
▁evol	-6788
▁fads	-6789
▁farm	-6790
▁fart	-6791
▁fits	-6792
▁flow	-6793
▁gamb	-6794
▁grad	-6795
▁grow	-6796
▁hosp	-6797
▁hunt	-6798
▁hush	-6799
VI	-6800
Rem	-6801
Tut	-6802
abs	-6803
iod	-6804
lim	-6805
lve	-6806
mad	-6807
osh	-6808
osy	-6809
spe	-6810
▁EB	-6811
▁EX	-6812
▁Ed	-6813
▁Ez	-6814
angs	-6815
eded	-6816
isod	-6817
lvet	-6818
quil	-6819
scap	-6820
stly	-6821
uche	-6822
▁EBO	-6823
▁Off	-6824
▁Von	-6825
▁wig	-6826
▁’84	-6827
abond	-6828
about	-6829
attoo	-6830
eling	-6831
idity	-6832
irmed	-6833
ordon	-6834
osing	-6835
ulity	-6836
ummed	-6837
▁EBOO	-6838
▁LIAB	-6839
▁agit	-6840
▁excl	-6841
▁fish	-6842
▁heel	-6843
▁limb	-6844
▁male	-6845
▁marg	-6846
▁merc	-6847
▁mile	-6848
▁misg	-6849
▁mole	-6850
▁moss	-6851
▁mumb	-6852
▁nons	-6853
▁nurs	-6854
▁obey	-6855
▁phys	-6856
▁purp	-6857
▁push	-6858
▁race	-6859
▁rans	-6860
▁rejo	-6861
▁rift	-6862
▁rude	-6863
▁ruff	-6864
▁sins	-6865
▁sits	-6866
▁slim	-6867
▁snar	-6868
▁stup	-6869
▁till	-6870
▁tiny	-6871
▁twit	-6872
▁undo	-6873
▁unex	-6874
▁virt	-6875
▁vows	-6876
▁wont	-6877
▁zero	-6878
▁’85,	-6879
Excuse	-6880
TRIBUT	-6881
abouts	-6882
achery	-6883
advant	-6884
anging	-6885
annica	-6886
arbank	-6887
arture	-6888
asible	-6889
astiff	-6890
asting	-6891
atured	-6892
bushes	-6893
bvious	-6894
cember	-6895
cience	-6896
ctures	-6897
dening	-6898
dering	-6899
Eh	-6900
:30	-6901
Ten	-6902
gie	-6903
▁30	-6904
▁Kl	-6905
Lady	-6906
cies	-6907
hant	-6908
mise	-6909
moon	-6910
post	-6911
▁Des	-6912
▁Hay	-6913
▁adj	-6914
▁dom	-6915
▁pie	-6916
aggie	-6917
alled	-6918
amore	-6919
assed	-6920
dress	-6921
issed	-6922
knife	-6923
olved	-6924
onate	-6925
ugust	-6926
▁Klan	-6927
▁Most	-6928
▁clim	-6929
▁corn	-6930
▁coun	-6931
▁flag	-6932
▁gasf	-6933
▁hook	-6934
▁nost	-6935
▁pert	-6936
▁sall	-6937
▁snap	-6938
▁thud	-6939
donate	-6940
ederal	-6941
elling	-6942
entiet	-6943
entity	-6944
ertips	-6945
escend	-6946
ferred	-6947
hastly	-6948
iastic	-6949
ichest	-6950
icking	-6951
inated	-6952
inavia	-6953
ingled	-6954
intosh	-6955
iptoes	-6956
isible	-6957
itance	-6958
ituted	-6959
ivings	-6960
lantic	-6961
letter	-6962
lished	-6963
manent	-6964
mstein	-6965
needle	-6966
octial	-6967
olborn	-6968
olland	-6969
ompany	-6970
opkins	-6971
ordham	-6972
orters	-6973
ourage	-6974
parent	-6975
pected	-6976
piring	-6977
porary	-6978
raised	-6979
reaths	-6980
renely	-6981
ricult	-6982
rocket	-6983
roping	-6984
shaped	-6985
soever	-6986
tering	-6987
ulprit	-6988
ulsion	-6989
umbers	-6990
umbler	-6991
utting	-6992
wilder	-6993
witted	-6994
▁AGREE	-6995
▁ASCII	-6996
▁Above	-6997
▁Among	-6998
▁April	-6999
.—	-7000
af	-7001
na	-7002
zy	-7003
Cap	-7004
cap	-7005
nzy	-7006
rog	-7007
▁Fe	-7008
Fire	-7009
away	-7010
bury	-7011
down	-7012
lain	-7013
ober	-7014
time	-7015
urer	-7016
vice	-7017
▁Feb	-7018
▁Fle	-7019
▁Gro	-7020
▁ack	-7021
▁jet	-7022
▁nut	-7023
Plain	-7024
Pshaw	-7025
amber	-7026
ences	-7027
field	-7028
iress	-7029
ortly	-7030
ruary	-7031
▁Fair	-7032
▁Five	-7033
▁Gros	-7034
▁Take	-7035
▁adap	-7036
▁bite	-7037
▁brim	-7038
▁cart	-7039
▁loat	-7040
▁pref	-7041
▁prey	-7042
▁prog	-7043
▁pron	-7044
▁scru	-7045
▁sigh	-7046
▁vice	-7047
▁weig	-7048
arches	-7049
contro	-7050
ctober	-7051
ellish	-7052
igence	-7053
ington	-7054
mbrell	-7055
reason	-7056
▁Beryl	-7057
▁Duche	-7058
▁EBOOK	-7059
▁Edgew	-7060
▁Fench	-7061
▁Fleet	-7062
▁Kramm	-7063
▁Manor	-7064
▁Munro	-7065
▁START	-7066
▁Scand	-7067
▁Sever	-7068
▁South	-7069
▁Swain	-7070
▁Thank	-7071
▁Thurs	-7072
▁Times	-7073
▁Under	-7074
▁Union	-7075
▁accur	-7076
▁acres	-7077
▁adopt	-7078
▁aloud	-7079
▁amiss	-7080
▁aquil	-7081
▁arise	-7082
▁armed	-7083
▁badly	-7084
▁baggy	-7085
▁bands	-7086
▁banks	-7087
▁basin	-7088
▁bills	-7089
▁blaze	-7090
▁blund	-7091
▁bones	-7092
▁brace	-7093
▁bread	-7094
▁burgl	-7095
▁calls	-7096
▁capac	-7097
▁cells	-7098
▁chief	-7099
fla	-7100
▁60	-7101
▁CO	-7102
▁PG	-7103
▁PU	-7104
Near	-7105
ersc	-7106
ghan	-7107
laid	-7108
lers	-7109
ners	-7110
ousy	-7111
prof	-7112
urel	-7113
▁Bow	-7114
▁INC	-7115
▁Pat	-7116
▁Pre	-7117
▁abn	-7118
▁amb	-7119
▁oun	-7120
These	-7121
akers	-7122
fghan	-7123
hance	-7124
icant	-7125
iched	-7126
idant	-7127
inked	-7128
itect	-7129
kirts	-7130
lders	-7131
llect	-7132
othed	-7133
persc	-7134
urnal	-7135
venor	-7136
▁Gone	-7137
▁coil	-7138
▁flat	-7139
▁roar	-7140
▁tone	-7141
▁unim	-7142
▁wide	-7143
uating	-7144
usions	-7145
yright	-7146
▁actor	-7147
▁blott	-7148
▁chink	-7149
▁citiz	-7150
▁class	-7151
▁claws	-7152
▁clink	-7153
▁coins	-7154
▁corro	-7155
▁costs	-7156
▁crawl	-7157
▁crown	-7158
▁cryst	-7159
▁curve	-7160
▁daily	-7161
▁dares	-7162
▁diary	-7163
▁drank	-7164
▁drawb	-7165
▁drops	-7166
▁dummy	-7167
▁dusty	-7168
▁equin	-7169
▁erred	-7170
▁fiery	-7171
▁files	-7172
▁finer	-7173
▁fiver	-7174
▁flame	-7175
▁flash	-7176
▁frank	-7177
▁gales	-7178
▁gaunt	-7179
▁giant	-7180
▁gleam	-7181
▁glint	-7182
▁groan	-7183
▁hangs	-7184
▁haste	-7185
▁hears	-7186
▁hedge	-7187
▁hills	-7188
▁hurts	-7189
▁ideal	-7190
▁ideas	-7191
▁illeg	-7192
▁implo	-7193
▁incap	-7194
▁index	-7195
▁infer	-7196
▁insin	-7197
▁instr	-7198
▁issue	-7199
LI	-7200
sm	-7201
Pon	-7202
cus	-7203
jud	-7204
roc	-7205
upp	-7206
usk	-7207
▁BO	-7208
▁IN	-7209
Give	-7210
ajor	-7211
imen	-7212
iour	-7213
ules	-7214
usse	-7215
▁Bar	-7216
▁ven	-7217
ardro	-7218
ateur	-7219
edged	-7220
elled	-7221
ooing	-7222
usive	-7223
▁Supp	-7224
▁Tell	-7225
▁abro	-7226
▁acid	-7227
▁bark	-7228
▁dusk	-7229
▁noct	-7230
▁pond	-7231
▁slur	-7232
▁sout	-7233
▁unhe	-7234
Americ	-7235
former	-7236
idered	-7237
iteous	-7238
licted	-7239
ration	-7240
ulties	-7241
▁ashen	-7242
▁beast	-7243
▁bored	-7244
▁clank	-7245
▁crash	-7246
▁fangs	-7247
▁knots	-7248
▁lamps	-7249
▁liked	-7250
▁liter	-7251
▁logic	-7252
▁lurid	-7253
▁maint	-7254
▁major	-7255
▁maker	-7256
▁march	-7257
▁maxim	-7258
▁maybe	-7259
▁mercy	-7260
▁moral	-7261
▁mould	-7262
▁needs	-7263
▁noted	-7264
▁oppon	-7265
▁ounce	-7266
▁outer	-7267
▁pause	-7268
▁pence	-7269
▁petty	-7270
▁pince	-7271
▁plann	-7272
▁plays	-7273
▁prank	-7274
▁purse	-7275
▁queen	-7276
▁relic	-7277
▁reven	-7278
▁rigid	-7279
▁rings	-7280
▁rogue	-7281
▁rules	-7282
▁rusty	-7283
▁safer	-7284
▁scrat	-7285
▁scrib	-7286
▁seats	-7287
▁seedy	-7288
▁shave	-7289
▁sheer	-7290
▁sings	-7291
▁skirt	-7292
▁slabs	-7293
▁slang	-7294
▁slate	-7295
▁slave	-7296
▁snarl	-7297
▁spong	-7298
▁staff	-7299
16	-7300
UL	-7301
tc	-7302
Bet	-7303
Our	-7304
Put	-7305
ULL	-7306
_,’	-7307
gam	-7308
oof	-7309
wed	-7310
▁TO	-7311
▁VI	-7312
arge	-7313
erms	-7314
oofs	-7315
pone	-7316
umes	-7317
yard	-7318
▁120	-7319
▁187	-7320
▁blo	-7321
▁etc	-7322
▁fix	-7323
▁fru	-7324
▁lif	-7325
▁ung	-7326
▁uno	-7327
▁von	-7328
asing	-7329
asted	-7330
dling	-7331
ental	-7332
owner	-7333
▁1883	-7334
▁FULL	-7335
▁amaz	-7336
▁bade	-7337
▁bind	-7338
▁buzz	-7339
▁coin	-7340
▁dash	-7341
▁isol	-7342
▁mail	-7343
▁owns	-7344
▁pall	-7345
▁seal	-7346
▁sees	-7347
▁sore	-7348
▁sway	-7349
▁tool	-7350
holder	-7351
▁Hence	-7352
▁Large	-7353
▁Terms	-7354
▁array	-7355
▁bosom	-7356
▁bulld	-7357
▁cabin	-7358
▁harsh	-7359
▁hoofs	-7360
▁putty	-7361
▁quill	-7362
▁stamp	-7363
▁stars	-7364
▁stile	-7365
▁stole	-7366
▁stuck	-7367
▁suits	-7368
▁surfa	-7369
▁swamp	-7370
▁swarm	-7371
▁swore	-7372
▁sworn	-7373
▁timid	-7374
▁title	-7375
▁tones	-7376
▁tooth	-7377
▁traff	-7378
▁tress	-7379
▁turns	-7380
▁twink	-7381
▁twins	-7382
▁uneas	-7383
▁unsol	-7384
▁urged	-7385
▁veget	-7386
▁verge	-7387
▁views	-7388
▁weigh	-7389
▁wharf	-7390
▁winds	-7391
▁wiser	-7392
▁wreck	-7393
▁wrink	-7394
Colonel	-7395
Frankly	-7396
Morning	-7397
alities	-7398
althily	-7399
.6	-7400
wo	-7401
▁[	-7402
.5.	-7403
.6.	-7404
Per	-7405
Two	-7406
_,”	-7407
aur	-7408
dro	-7409
eve	-7410
gro	-7411
iot	-7412
van	-7413
ayed	-7414
dles	-7415
erse	-7416
with	-7417
▁Old	-7418
▁anc	-7419
▁ash	-7420
▁ate	-7421
▁net	-7422
▁sme	-7423
▁wel	-7424
asher	-7425
ifies	-7426
kempt	-7427
leeve	-7428
olice	-7429
rages	-7430
seven	-7431
▁Gate	-7432
▁Mark	-7433
▁boat	-7434
▁butt	-7435
▁flaw	-7436
▁rele	-7437
▁stam	-7438
ckless	-7439
ortion	-7440
sleeve	-7441
▁McCau	-7442
▁Young	-7443
▁escap	-7444
▁gross	-7445
▁inexp	-7446
▁luxur	-7447
▁negro	-7448
▁perch	-7449
▁plank	-7450
▁repay	-7451
▁swing	-7452
▁wings	-7453
arative	-7454
ardrobe	-7455
athetic	-7456
berdeen	-7457
blooded	-7458
compass	-7459
control	-7460
ensibly	-7461
entieth	-7462
entless	-7463
evening	-7464
fashion	-7465
grinder	-7466
iminate	-7467
ingular	-7468
ircumst	-7469
itution	-7470
ivering	-7471
jecting	-7472
jumping	-7473
lantern	-7474
licates	-7475
llables	-7476
masonry	-7477
mblance	-7478
mbrella	-7479
menting	-7480
morning	-7481
natured	-7482
omplete	-7483
onymous	-7484
ourably	-7485
pennies	-7486
pyright	-7487
respect	-7488
securer	-7489
sidered	-7490
storied	-7491
ulating	-7492
writing	-7493
▁Afghan	-7494
▁BREACH	-7495
▁Bakers	-7496
▁Beside	-7497
▁Calhou	-7498
▁Camber	-7499
--	-7500
.4	-7501
CH	-7502
LA	-7503
PH	-7504
oc	-7505
.4.	-7506
Get	-7507
Nor	-7508
hot	-7509
ige	-7510
mar	-7511
oor	-7512
swe	-7513
▁15	-7514
▁“1	-7515
none	-7516
when	-7517
▁XII	-7518
▁awa	-7519
▁hid	-7520
▁sly	-7521
▁sod	-7522
▁win	-7523
blest	-7524
llish	-7525
oming	-7526
ulous	-7527
▁117,	-7528
▁Born	-7529
▁Hard	-7530
▁Paul	-7531
▁Swan	-7532
▁Test	-7533
▁ease	-7534
▁pled	-7535
▁soda	-7536
▁uses	-7537
ources	-7538
▁Hardy	-7539
▁based	-7540
▁eaves	-7541
▁fewer	-7542
▁humil	-7543
▁merit	-7544
▁spell	-7545
onsider	-7546
ublican	-7547
▁Alders	-7548
▁Cather	-7549
▁Edward	-7550
▁Except	-7551
▁Fresno	-7552
▁Goodge	-7553
▁Gordon	-7554
▁HUNTER	-7555
▁Intern	-7556
▁Maggie	-7557
▁Mother	-7558
▁Museum	-7559
▁Regent	-7560
▁Scotch	-7561
▁Thread	-7562
▁Twenty	-7563
▁Underg	-7564
▁Unless	-7565
▁Warsaw	-7566
▁abnorm	-7567
▁abroad	-7568
▁acknow	-7569
▁amused	-7570
▁arrive	-7571
▁aspect	-7572
▁assume	-7573
▁avenue	-7574
▁barque	-7575
▁barric	-7576
▁berths	-7577
▁billet	-7578
▁bitten	-7579
▁bowing	-7580
▁braced	-7581
▁braved	-7582
▁brings	-7583
▁butler	-7584
▁calcul	-7585
▁candid	-7586
▁catast	-7587
▁celebr	-7588
▁cheery	-7589
▁chestn	-7590
▁compet	-7591
▁compos	-7592
▁conven	-7593
▁copied	-7594
▁crisis	-7595
▁darker	-7596
▁dealer	-7597
▁deaths	-7598
▁decide	-7599
41	-7600
Al	-7601
IM	-7602
ta	-7603
uv	-7604
’—	-7605
Are	-7606
ING	-7607
Und	-7608
ese	-7609
esy	-7610
onc	-7611
▁IV	-7612
▁IX	-7613
▁Im	-7614
Away	-7615
clad	-7616
skin	-7617
wing	-7618
▁Sit	-7619
▁Use	-7620
▁luc	-7621
▁obt	-7622
▁orn	-7623
▁tin	-7624
▁tom	-7625
inges	-7626
onist	-7627
ropri	-7628
▁VIII	-7629
▁bald	-7630
▁belt	-7631
▁bust	-7632
▁cabs	-7633
▁fuss	-7634
▁lieu	-7635
▁poet	-7636
▁rene	-7637
▁star	-7638
▁tang	-7639
▁term	-7640
Arthur	-7641
anding	-7642
lights	-7643
orting	-7644
▁charm	-7645
▁final	-7646
▁gates	-7647
▁inher	-7648
▁quote	-7649
▁rearr	-7650
▁smack	-7651
skinned	-7652
▁Morris	-7653
▁Should	-7654
▁Spence	-7655
▁accent	-7656
▁commer	-7657
▁cracks	-7658
▁decrep	-7659
▁demand	-7660
▁devoid	-7661
▁devote	-7662
▁domain	-7663
▁dreams	-7664
▁drives	-7665
▁eclips	-7666
▁elbows	-7667
▁emerge	-7668
▁enable	-7669
▁ending	-7670
▁episod	-7671
▁escort	-7672
▁exclam	-7673
▁exempt	-7674
▁expend	-7675
▁famous	-7676
▁fasten	-7677
▁faster	-7678
▁fathom	-7679
▁faults	-7680
▁fishes	-7681
▁flames	-7682
▁fleecy	-7683
▁framed	-7684
▁fulfil	-7685
▁gaping	-7686
▁glared	-7687
▁glided	-7688
▁glossy	-7689
▁gossip	-7690
▁greasy	-7691
▁handle	-7692
▁headed	-7693
▁hedges	-7694
▁helper	-7695
▁hinges	-7696
▁horsey	-7697
▁hotels	-7698
▁hubbub	-7699
.2	-7700
Be	-7701
MB	-7702
NG	-7703
SS	-7704
Sm	-7705
su	-7706
sy	-7707
.2.	-7708
ASE	-7709
dan	-7710
hum	-7711
ARAT	-7712
NCLE	-7713
bled	-7714
ends	-7715
have	-7716
iver	-7717
just	-7718
▁San	-7719
▁die	-7720
▁ela	-7721
▁mas	-7722
▁sou	-7723
▁’83	-7724
ctory	-7725
guard	-7726
inged	-7727
ssian	-7728
trade	-7729
uster	-7730
▁Jose	-7731
▁Jove	-7732
▁Wood	-7733
▁bang	-7734
▁oper	-7735
▁tear	-7736
▁wine	-7737
itters	-7738
orable	-7739
▁Place	-7740
▁admit	-7741
▁gaped	-7742
▁holes	-7743
▁honey	-7744
▁knife	-7745
▁pinch	-7746
▁slope	-7747
ishness	-7748
itative	-7749
locking	-7750
▁30,000	-7751
▁Gladst	-7752
▁doings	-7753
▁firmly	-7754
▁frenzy	-7755
▁humble	-7756
▁hungry	-7757
▁hyster	-7758
▁illust	-7759
▁inches	-7760
▁incred	-7761
▁indign	-7762
▁indisc	-7763
▁induce	-7764
▁insist	-7765
▁insuff	-7766
▁insult	-7767
▁intens	-7768
▁intrud	-7769
▁inward	-7770
▁island	-7771
▁issues	-7772
▁jerked	-7773
▁jewell	-7774
▁jewels	-7775
▁joined	-7776
▁jovial	-7777
▁lashed	-7778
▁laurel	-7779
▁lazily	-7780
▁lichen	-7781
▁lifted	-7782
▁lights	-7783
▁linked	-7784
▁locket	-7785
▁lodger	-7786
▁loomed	-7787
▁lowest	-7788
▁manual	-7789
▁miners	-7790
▁mining	-7791
▁mirror	-7792
▁modern	-7793
▁monosy	-7794
▁muzzle	-7795
▁napole	-7796
▁native	-7797
▁noting	-7798
▁obeyed	-7799
▁offers	-7800
▁openly	-7801
▁origin	-7802
▁oscill	-7803
▁overhe	-7804
▁packed	-7805
▁packet	-7806
▁palpit	-7807
▁pardon	-7808
▁parish	-7809
▁patted	-7810
▁perils	-7811
▁policy	-7812
▁porter	-7813
▁portly	-7814
▁prelim	-7815
▁prepar	-7816
▁preser	-7817
▁probed	-7818
▁proofs	-7819
▁proves	-7820
▁puffed	-7821
▁purcha	-7822
▁rabbit	-7823
▁radius	-7824
▁recess	-7825
▁refers	-7826
▁refres	-7827
▁regard	-7828
▁relief	-7829
▁repute	-7830
▁retrog	-7831
▁rifled	-7832
▁roared	-7833
▁rocket	-7834
▁ruined	-7835
▁sample	-7836
▁saving	-7837
▁scared	-7838
▁scored	-7839
▁seared	-7840
▁senior	-7841
▁senses	-7842
▁serves	-7843
▁sevent	-7844
▁shabby	-7845
▁shared	-7846
▁sherry	-7847
▁shrunk	-7848
▁sketch	-7849
▁sleeps	-7850
▁smokes	-7851
▁sobbed	-7852
▁sodden	-7853
▁source	-7854
▁spared	-7855
▁speaks	-7856
▁sponge	-7857
▁sprung	-7858
▁stains	-7859
▁sticks	-7860
▁stolen	-7861
▁stored	-7862
▁strain	-7863
▁strict	-7864
▁stride	-7865
▁strode	-7866
▁stroke	-7867
▁suited	-7868
▁tackle	-7869
▁tattoo	-7870
▁tender	-7871
▁thanks	-7872
▁thrill	-7873
▁treble	-7874
▁trusty	-7875
▁tunnel	-7876
▁unclas	-7877
▁undert	-7878
▁unimpe	-7879
▁united	-7880
▁unrave	-7881
▁vacant	-7882
▁varied	-7883
▁veiled	-7884
▁velvet	-7885
▁viewed	-7886
▁villas	-7887
▁violet	-7888
▁waving	-7889
▁whisky	-7890
▁widest	-7891
▁wisely	-7892
▁wooing	-7893
▁worthy	-7894
American	-7895
Whatever	-7896
adelphia	-7897
bviously	-7898
ecretary	-7899
idential	-7900
ndergast	-7901
oughfare	-7902
rictions	-7903
riminate	-7904
whiskers	-7905
▁11:15.’	-7906
▁Allegro	-7907
▁Calhoun	-7908
▁Capital	-7909
▁Charing	-7910
▁Coronet	-7911
▁DAMAGES	-7912
▁Duchess	-7913
▁Eastern	-7914
▁Ezekiah	-7915
▁Fordham	-7916
▁Gazette	-7917
▁Georgia	-7918
▁Hanover	-7919
▁Holborn	-7920
▁Holland	-7921
▁Hopkins	-7922
▁LICENSE	-7923
▁Marbank	-7924
▁October	-7925
▁Outside	-7926
▁Royalty	-7927
▁Scandal	-7928
▁Shortly	-7929
▁Swiftly	-7930
▁Vanilla	-7931
▁abutted	-7932
▁accumul	-7933
▁acquire	-7934
▁adopted	-7935
▁adviser	-7936
▁amusing	-7937
▁annoyed	-7938
▁answers	-7939
▁arrival	-7940
▁assault	-7941
▁assumed	-7942
▁attract	-7943
▁avoided	-7944
▁blanche	-7945
▁blazing	-7946
▁borders	-7947
▁bottles	-7948
▁brazier	-7949
▁briskly	-7950
▁bulldog	-7951
▁bullion	-7952
▁burgled	-7953
▁cabinet	-7954
▁cashier	-7955
▁chagrin	-7956
▁chances	-7957
▁chronic	-7958
▁circles	-7959
▁clamped	-7960
▁clatter	-7961
▁cleaned	-7962
▁cleaver	-7963
▁columns	-7964
▁concept	-7965
▁concert	-7966
▁confide	-7967
▁confine	-7968
▁contrib	-7969
▁control	-7970
▁convent	-7971
▁coppers	-7972
▁corners	-7973
▁created	-7974
▁culprit	-7975
▁cushion	-7976
▁damages	-7977
▁damning	-7978
▁dangers	-7979
▁daresay	-7980
▁dashing	-7981
▁defined	-7982
▁degrees	-7983
▁deserts	-7984
▁desired	-7985
▁desires	-7986
▁destiny	-7987
▁develop	-7988
▁devised	-7989
▁diamond	-7990
▁discont	-7991
▁disgust	-7992
▁dislike	-7993
▁divined	-7994
▁doubted	-7995
▁drifted	-7996
▁earning	-7997
▁endless	-7998
▁enemies	-7999
▁entries	-8000
▁erected	-8001
▁exacted	-8002
▁exagger	-8003
▁extingu	-8004
▁failing	-8005
▁falling	-8006
▁federal	-8007
▁fifteen	-8008
▁flaming	-8009
▁flapped	-8010
▁flowers	-8011
▁flowing	-8012
▁follows	-8013
▁foreman	-8014
▁foresaw	-8015
▁freedom	-8016
▁gallows	-8017
▁gambler	-8018
▁ghastly	-8019
▁glimmer	-8020
▁glitter	-8021
▁glowing	-8022
▁granted	-8023
▁grating	-8024
▁greyish	-8025
▁groping	-8026
▁growing	-8027
▁guessed	-8028
▁haggard	-8029
▁halfway	-8030
▁happens	-8031
▁happily	-8032
▁harness	-8033
▁heavier	-8034
▁heiress	-8035
▁hellish	-8036
▁highway	-8037
▁holiday	-8038
▁horrify	-8039
▁humming	-8040
▁hurling	-8041
▁implore	-8042
▁impulse	-8043
▁indulge	-8044
▁intense	-8045
▁invited	-8046
▁kingdom	-8047
▁knitted	-8048
▁languid	-8049
▁languor	-8050
▁manners	-8051
▁mastiff	-8052
▁meadows	-8053
▁message	-8054
▁mingled	-8055
▁mixture	-8056
▁morocco	-8057
▁mumbled	-8058
▁nearest	-8059
▁nearing	-8060
▁noblest	-8061
▁nodding	-8062
▁notices	-8063
▁numbers	-8064
▁nursery	-8065
▁ostlers	-8066
▁perched	-8067
▁persons	-8068
▁picking	-8069
▁pillows	-8070
▁piteous	-8071
▁plaster	-8072
▁pledged	-8073
▁plucked	-8074
▁plunged	-8075
▁popular	-8076
▁pouring	-8077
▁product	-8078
▁propose	-8079
▁prosper	-8080
▁purport	-8081
▁reaches	-8082
▁recover	-8083
▁regards	-8084
▁rending	-8085
▁reports	-8086
▁resided	-8087
▁resolve	-8088
▁revenge	-8089
▁richest	-8090
▁ringing	-8091
▁roughly	-8092
▁scenery	-8093
▁science	-8094
▁scraped	-8095
▁sending	-8096
▁serving	-8097
▁settles	-8098
▁shelves	-8099
▁shocked	-8100
▁shorter	-8101
▁simpler	-8102
▁sliding	-8103
▁smaller	-8104
▁snapped	-8105
▁snarled	-8106
▁solicit	-8107
▁sounded	-8108
▁spoiled	-8109
▁sternly	-8110
▁stooped	-8111
▁studied	-8112
▁suavely	-8113
▁subdued	-8114
▁supersc	-8115
▁surface	-8116
▁surmise	-8117
▁thinker	-8118
▁tickets	-8119
▁tossing	-8120
▁traffic	-8121
▁tresses	-8122
▁trifles	-8123
▁trusted	-8124
▁uniform	-8125
▁unobser	-8126
▁ushered	-8127
▁vacuous	-8128
▁venture	-8129
▁waylaid	-8130
▁wayside	-8131
▁wealthy	-8132
▁weighed	-8133
▁wharves	-8134
▁whisper	-8135
▁widened	-8136
▁womanly	-8137
▁wronged	-8138
▁yawning	-8139
afternoon	-8140
aratively	-8141
fashioned	-8142
reasoning	-8143
restraint	-8144
▁Aberdeen	-8145
▁Atlantic	-8146
▁Bradshaw	-8147
▁Edgeware	-8148
▁Fairbank	-8149
▁February	-8150
▁McCauley	-8151
▁Ormstein	-8152
▁Paramore	-8153
▁Roylotts	-8154
▁Southern	-8155
▁Suburban	-8156
▁Thursday	-8157
▁Violence	-8158
▁WARRANTY	-8159
▁Westaway	-8160
▁abruptly	-8161
▁absurdly	-8162
▁accompan	-8163
▁adjusted	-8164
▁admiring	-8165
▁advanced	-8166
▁affected	-8167
▁agitated	-8168
▁agricult	-8169
▁animated	-8170
▁applying	-8171
▁aquiline	-8172
▁argument	-8173
▁artistic	-8174
▁attitude	-8175
▁autumnal	-8176
▁aversion	-8177
▁belonged	-8178
▁bewilder	-8179
▁biograph	-8180
▁bitterly	-8181
▁bleeding	-8182
▁blotches	-8183
▁blotting	-8184
▁boarding	-8185
▁bordered	-8186
▁borrowed	-8187
▁capacity	-8188
▁chairman	-8189
▁charcoal	-8190
▁cheerful	-8191
▁cheerily	-8192
▁chestnut	-8193
▁chimneys	-8194
▁citizens	-8195
▁clanging	-8196
▁clutches	-8197
▁colonies	-8198
▁coloured	-8199
▁commands	-8200
▁compared	-8201
▁complain	-8202
▁compress	-8203
▁computer	-8204
▁conceive	-8205
▁confided	-8206
▁confused	-8207
▁contains	-8208
▁courtesy	-8209
▁daylight	-8210
▁deceived	-8211
▁delirium	-8212
▁departed	-8213
▁deprived	-8214
▁diggings	-8215
▁directly	-8216
▁discreet	-8217
▁disposal	-8218
▁division	-8219
▁downward	-8220
▁drawback	-8221
▁drenched	-8222
▁drifting	-8223
▁dropping	-8224
▁drunkard	-8225
▁earrings	-8226
▁eligible	-8227
▁engaging	-8228
▁entrance	-8229
▁escorted	-8230
▁evenings	-8231
▁exchange	-8232
▁exercise	-8233
▁facility	-8234
▁fainting	-8235
▁farthest	-8236
▁fattened	-8237
▁favoured	-8238
▁feasible	-8239
▁fiercely	-8240
▁floating	-8241
▁flooring	-8242
▁flushing	-8243
▁foolscap	-8244
▁foreseen	-8245
▁fragment	-8246
▁frequent	-8247
▁frighten	-8248
▁gracious	-8249
▁grinning	-8250
▁handling	-8251
▁hopeless	-8252
▁hospital	-8253
▁identify	-8254
▁identity	-8255
▁implored	-8256
▁improved	-8257
▁injuring	-8258
▁insisted	-8259
▁jealousy	-8260
▁lighting	-8261
▁listless	-8262
▁loungers	-8263
▁manifest	-8264
▁marrying	-8265
▁measures	-8266
▁monogram	-8267
▁mumbling	-8268
▁narrowly	-8269
▁national	-8270
▁newcomer	-8271
▁nobleman	-8272
▁nonsense	-8273
▁nostrils	-8274
▁obstacle	-8275
▁offended	-8276
▁opponent	-8277
▁opposing	-8278
▁outbreak	-8279
▁outlined	-8280
▁outrages	-8281
▁overtook	-8282
▁patience	-8283
▁patients	-8284
▁pattered	-8285
▁physical	-8286
▁planning	-8287
▁politics	-8288
▁postpone	-8289
▁predomin	-8290
▁prepared	-8291
▁presents	-8292
▁prospect	-8293
▁province	-8294
▁provoked	-8295
▁quarrels	-8296
▁radiance	-8297
▁rattling	-8298
▁realised	-8299
▁reasoned	-8300
▁recently	-8301
▁reckless	-8302
▁recorded	-8303
▁regained	-8304
▁relative	-8305
▁residing	-8306
▁resource	-8307
▁retiring	-8308
▁savagely	-8309
▁sequence	-8310
▁serenely	-8311
▁settling	-8312
▁severely	-8313
▁shooting	-8314
▁sickness	-8315
▁situated	-8316
▁sleepers	-8317
▁slightly	-8318
▁slipping	-8319
▁smallest	-8320
▁smearing	-8321
▁snatched	-8322
▁southern	-8323
▁sparkled	-8324
▁speaking	-8325
▁specimen	-8326
▁spinning	-8327
▁splendid	-8328
▁sticking	-8329
▁streamed	-8330
▁stricken	-8331
▁suffered	-8332
▁sufferer	-8333
▁summoned	-8334
▁superior	-8335
▁survivor	-8336
▁sweating	-8337
▁sweeping	-8338
▁symptoms	-8339
▁tattered	-8340
▁trampled	-8341
▁trustees	-8342
▁twopence	-8343
▁umbrella	-8344
▁vagabond	-8345
▁ventured	-8346
▁villages	-8347
▁wardrobe	-8348
▁weakness	-8349
▁weighted	-8350
▁whistled	-8351
▁whistles	-8352
▁withdraw	-8353
▁woodcock	-8354
▁worrying	-8355
▁wretched	-8356
▁wrinkles	-8357
Absolutely	-8358
▁Australia	-8359
▁Catherine	-8360
▁Continent	-8361
▁DISTRIBUT	-8362
▁Donations	-8363
▁Fenchurch	-8364
▁Francisco	-8365
▁Gladstone	-8366
▁Grosvenor	-8367
▁Lancaster	-8368
▁Obviously	-8369
▁Redistrib	-8370
▁Sometimes	-8371
▁Testament	-8372
▁Therefore	-8373
▁Westhouse	-8374
▁according	-8375
▁addressed	-8376
▁amusement	-8377
▁ascertain	-8378
▁assisting	-8379
▁attendant	-8380
▁available	-8381
▁balancing	-8382
▁beckoning	-8383
▁belonging	-8384
▁bloodless	-8385
▁brightest	-8386
▁burrowing	-8387
▁buttoning	-8388
▁cardboard	-8389
▁clattered	-8390
▁cloudless	-8391
▁collapsed	-8392
▁complaint	-8393
▁computers	-8394
▁concluded	-8395
▁condition	-8396
▁confidant	-8397
▁confirmed	-8398
▁confusion	-8399
▁consisted	-8400
▁constable	-8401
▁consulted	-8402
▁contained	-8403
▁cylinders	-8404
▁deadliest	-8405
▁decidedly	-8406
▁deference	-8407
▁delirious	-8408
▁departure	-8409
▁descended	-8410
▁developed	-8411
▁devotedly	-8412
▁devouring	-8413
▁disadvant	-8414
▁eagerness	-8415
▁elaborate	-8416
▁embellish	-8417
▁employers	-8418
▁employing	-8419
▁entangled	-8420
▁exchanged	-8421
▁exclusion	-8422
▁expressed	-8423
▁extending	-8424
▁faculties	-8425
▁financier	-8426
▁flattened	-8427
▁fleshless	-8428
▁fluttered	-8429
▁footfalls	-8430
▁footpaths	-8431
▁footsteps	-8432
▁furiously	-8433
▁gathering	-8434
▁gradually	-8435
▁hastening	-8436
▁honeymoon	-8437
▁implicate	-8438
▁impulsive	-8439
▁incapable	-8440
▁inflicted	-8441
▁ingenious	-8442
▁interrupt	-8443
▁intervals	-8444
▁intrusion	-8445
▁intrusted	-8446
▁intuition	-8447
▁invisible	-8448
▁landowner	-8449
▁liability	-8450
▁machinery	-8451
▁maddening	-8452
▁momentary	-8453
▁moustache	-8454
▁muttering	-8455
▁napoleons	-8456
▁newcomers	-8457
▁nocturnal	-8458
▁noiseless	-8459
▁observant	-8460
▁obstinate	-8461
▁outskirts	-8462
▁performed	-8463
▁permanent	-8464
▁permitted	-8465
▁perpetual	-8466
▁persuaded	-8467
▁perturbed	-8468
▁political	-8469
▁preceding	-8470
▁precisely	-8471
▁proceeded	-8472
▁prolonged	-8473
▁promoting	-8474
▁pronounce	-8475
▁propriety	-8476
▁protested	-8477
▁provision	-8478
▁publicity	-8479
▁ransacked	-8480
▁receiving	-8481
▁recollect	-8482
▁recommend	-8483
▁remainder	-8484
▁remarking	-8485
▁repulsive	-8486
▁resources	-8487
▁riverside	-8488
▁robberies	-8489
▁screaming	-8490
▁screening	-8491
▁separated	-8492
▁shapeless	-8493
▁shillings	-8494
▁shuttered	-8495
▁specified	-8496
▁spectacle	-8497
▁stammered	-8498
▁stillness	-8499
▁strangers	-8500
▁temporary	-8501
▁thrusting	-8502
▁traveller	-8503
▁treachery	-8504
▁twentieth	-8505
▁unlocking	-8506
▁vacancies	-8507
▁volunteer	-8508
▁whimsical	-8509
▁youngster	-8510
Undoubtedly	-8511
▁ADVENTURES	-8512
▁Australian	-8513
▁Britannica	-8514
▁Camberwell	-8515
▁Republican	-8516
▁WARRANTIES	-8517
▁accomplice	-8518
▁accordance	-8519
▁actionable	-8520
▁additional	-8521
▁addressing	-8522
▁admiration	-8523
▁analytical	-8524
▁astonished	-8525
▁celebrated	-8526
▁complained	-8527
▁conception	-8528
▁conclusive	-8529
▁condescend	-8530
▁conscience	-8531
▁considered	-8532
▁constraint	-8533
▁containing	-8534
▁controlled	-8535
▁convenient	-8536
▁directions	-8537
▁disclaimer	-8538
▁dreadfully	-8539
▁entreaties	-8540
▁explaining	-8541
▁expressive	-8542
▁favourably	-8543
▁fingertips	-8544
▁forbidding	-8545
▁gasfitters	-8546
▁government	-8547
▁hesitating	-8548
▁hesitation	-8549
▁hysterical	-8550
▁identified	-8551
▁impatience	-8552
▁improbable	-8553
▁imprudence	-8554
▁incomplete	-8555
▁increasing	-8556
▁indirectly	-8557
▁inexorable	-8558
▁infinitely	-8559
▁instituted	-8560
▁instrument	-8561
▁introduced	-8562
▁lengthened	-8563
▁literature	-8564
▁magistrate	-8565
▁management	-8566
▁misgivings	-8567
▁narratives	-8568
▁preventing	-8569
▁projecting	-8570
▁reasonable	-8571
▁recovering	-8572
▁references	-8573
▁registered	-8574
▁relentless	-8575
▁researches	-8576
▁sandwiched	-8577
▁shamefully	-8578
▁statements	-8579
▁stealthily	-8580
▁straighten	-8581
▁strengthen	-8582
▁struggling	-8583
▁succession	-8584
▁suspecting	-8585
▁temptation	-8586
▁thoughtful	-8587
▁transpired	-8588
▁travelling	-8589
▁uneasiness	-8590
▁unexpected	-8591
▁vegetables	-8592
▁waterproof	-8593
▁whatsoever	-8594
▁wickedness	-8595
▁wrongfully	-8596
Breckinridge	-8597
▁Prendergast	-8598
▁Scandinavia	-8599
▁Underground	-8600
▁advertising	-8601
▁alternately	-8602
▁bloodstains	-8603
▁brilliantly	-8604
▁catastrophe	-8605
▁convenience	-8606
▁corresponds	-8607
▁countryside	-8608
▁disgraceful	-8609
▁equinoctial	-8610
▁established	-8611
▁exaggerated	-8612
▁exclamation	-8613
▁experiences	-8614
▁featureless	-8615
▁forgiveness	-8616
▁fortunately	-8617
▁frantically	-8618
▁governesses	-8619
▁grandfather	-8620
▁handwriting	-8621
▁humiliation	-8622
▁impertinent	-8623
▁incredulity	-8624
▁indications	-8625
▁indignation	-8626
▁insinuating	-8627
▁introducing	-8628
▁investments	-8629
▁magnificent	-8630
▁millionaire	-8631
▁noiselessly	-8632
▁obligations	-8633
▁outstanding	-8634
▁palpitating	-8635
▁performance	-8636
▁persistence	-8637
▁photography	-8638
▁preliminary	-8639
▁prominently	-8640
▁prosecution	-8641
▁quarrelling	-8642
▁rearranging	-8643
▁recommended	-8644
▁represented	-8645
▁resemblance	-8646
▁responsible	-8647
▁sympathetic	-8648
▁transferred	-8649
▁transparent	-8650
▁unreasoning	-8651
▁whereabouts	-8652
ircumstantial	-8653
▁Philadelphia	-8654
▁Threadneedle	-8655
▁accomplished	-8656
▁affectionate	-8657
▁agricultural	-8658
▁bewilderment	-8659
▁commencement	-8660
▁commonplaces	-8661
▁communicated	-8662
▁compromising	-8663
▁confidential	-8664
▁disagreeable	-8665
▁eccentricity	-8666
▁entertaining	-8667
▁enthusiastic	-8668
▁explanations	-8669
▁inexplicable	-8670
▁instructions	-8671
▁insufficient	-8672
▁introduction	-8673
▁organisation	-8674
▁outstretched	-8675
▁passionately	-8676
▁preparations	-8677
▁questionable	-8678
▁reconsidered	-8679
▁restrictions	-8680
▁schoolmaster	-8681
▁stepdaughter	-8682
▁straightened	-8683
▁thoroughfare	-8684
▁Herefordshire	-8685
▁comparatively	-8686
▁contemplation	-8687
▁correspondent	-8688
▁exceptionally	-8689
▁individuality	-8690
▁retrogression	-8691
▁understanding	-8692
▁unimpeachable	-8693
▁correspondence	-8694
▁electronically	-8695
▁sensationalism	-8696
▁accomplishments	-8697
166	-8698
:35	-8699
41.	-8700
ABE	-8701
AST	-8702
AVE	-8703
CEP	-8704
GLI	-8705
ICE	-8706
LAC	-8707
LAF	-8708
LUE	-8709
MBE	-8710
NGE	-8711
PLI	-8712
Thr	-8713
VID	-8714
VIO	-8715
YST	-8716
▁75	-8717
ABEZ	-8718
ACHE	-8719
Arms	-8720
CAND	-8721
CAST	-8722
CEPT	-8723
Conv	-8724
DING	-8725
EGLI	-8726
ERYL	-8727
HING	-8728
Half	-8729
IMER	-8730
JEPH	-8731
MPLI	-8732
NTAB	-8733
OMBE	-8734
PLAC	-8735
RAPH	-8736
RESS	-8737
SSIB	-8738
Wait	-8739
caps	-8740
hope	-8741
icyc	-8742
ophy	-8743
poor	-8744
prec	-8745
rums	-8746
tube	-8747
uddy	-8748
umsy	-8749
▁12_	-8750
▁140	-8751
▁150	-8752
▁26_	-8753
▁27,	-8754
▁270	-8755
▁29,	-8756
▁750	-8757
▁841	-8758
▁Cuv	-8759
▁ENG	-8760
▁EXP	-8761
▁SIM	-8762
▁STR	-8763
▁Sna	-8764
▁iot	-8765
▁urg	-8766
,000,	-8767
1541.	-8768
5,000	-8769
ACHEL	-8770
ANTAB	-8771
Death	-8772
EGLIG	-8773
Fritz	-8774
IDENT	-8775
ITIVE	-8776
JABEZ	-8777
OSSIB	-8778
Percy	-8779
RANGE	-8780
Seven	-8781
Shill	-8782
Small	-8783
Smart	-8784
THING	-8785
Third	-8786
UCAST	-8787
UDING	-8788
VIDED	-8789
VIOLE	-8790
algam	-8791
algar	-8792
arshy	-8793
atomy	-8794
aurit	-8795
books	-8796
build	-8797
built	-8798
danse	-8799
CKL	-8800
EMN	-8801
yrd	-8802
▁88	-8803
BERT	-8804
ECKL	-8805
EMED	-8806
THER	-8807
whip	-8808
PECKL	-8809
chard	-8810
crown	-8811
danum	-8812
droch	-8813
emned	-8814
ennes	-8815
flare	-8816
hargy	-8817
igism	-8818
isdom	-8819
locus	-8820
looms	-8821
paned	-8822
power	-8823
rague	-8824
remem	-8825
shell	-8826
smith	-8827
tails	-8828
tubes	-8829
vania	-8830
vants	-8831
while	-8832
yrdom	-8833
▁1878	-8834
▁1884	-8835
▁1887	-8836
▁1888	-8837
▁4:35	-8838
▁60.”	-8839
▁6:30	-8840
▁Agra	-8841
▁BAND	-8842
▁BLUE	-8843
▁BOHE	-8844
▁BOSC	-8845
▁Clot	-8846
▁DISC	-8847
▁DISS	-8848
▁Desp	-8849
▁INCL	-8850
▁Nonc	-8851
▁STRI	-8852
▁Upon	-8853
▁WILL	-8854
▁WILS	-8855
▁Wait	-8856
▁croc	-8857
▁digs	-8858
▁dreg	-8859
▁duly	-8860
▁eddy	-8861
▁fero	-8862
▁gulp	-8863
▁haze	-8864
▁idle	-8865
▁iota	-8866
▁lucr	-8867
▁nonp	-8868
▁owed	-8869
▁pinn	-8870
▁pooh	-8871
▁pulp	-8872
▁tomf	-8873
▁trip	-8874
▁troo	-8875
▁unpa	-8876
▁unsy	-8877
▁vagu	-8878
▁zest	-8879
▁’85.	-8880
▁’89,	-8881
21541.	-8882
5,000)	-8883
AGRAPH	-8884
Anyhow	-8885
CANDAL	-8886
Coming	-8887
EMNITY	-8888
HUNTER	-8889
JEPHRO	-8890
LAIMER	-8891
Listen	-8892
NITIVE	-8893
Nearly	-8894
Oscill	-8895
Please	-8896
ROBERT	-8897
Remark	-8898
Should	-8899
hole	-8900
such	-8901
▁220	-8902
Drive	-8903
eldom	-8904
hilar	-8905
oleum	-8906
▁musc	-8907
▁ostr	-8908
▁ulst	-8909
Kindly	-8910
Seeing	-8911
VIOLET	-8912
YSTERY	-8913
adaver	-8914
aports	-8915
arlane	-8916
chance	-8917
chilla	-8918
cksure	-8919
crowns	-8920
dlesex	-8921
eigned	-8922
ertext	-8923
extric	-8924
gammon	-8925
genial	-8926
gentle	-8927
icians	-8928
icuous	-8929
itects	-8930
itrate	-8931
judice	-8932
learly	-8933
mirror	-8934
mmered	-8935
ompous	-8936
oncern	-8937
onoria	-8938
orrent	-8939
osophy	-8940
oultry	-8941
police	-8942
preced	-8943
precip	-8944
profit	-8945
ragedy	-8946
rators	-8947
repoff	-8948
ropics	-8949
seemed	-8950
strong	-8951
suited	-8952
taking	-8953
ulphat	-8954
ustace	-8955
within	-8956
ynical	-8957
▁11:30	-8958
▁1869,	-8959
▁1883—	-8960
▁2,000	-8961
▁BOHEM	-8962
▁Carls	-8963
▁Chubb	-8964
▁Civil	-8965
▁Crane	-8966
▁Daily	-8967
▁ENGIN	-8968
▁Email	-8969
▁Fresh	-8970
▁Fritz	-8971
▁Grand	-8972
▁Hanke	-8973
▁IDENT	-8974
▁Mathe	-8975
▁PGLAF	-8976
▁Princ	-8977
▁REMED	-8978
▁River	-8979
▁Russe	-8980
▁Subst	-8981
▁THOSE	-8982
▁Title	-8983
▁UNCLE	-8984
▁adapt	-8985
▁ambit	-8986
▁argue	-8987
▁argum	-8988
▁balls	-8989
▁basis	-8990
▁beige	-8991
▁bicyc	-8992
▁blend	-8993
▁briar	-8994
▁brief	-8995
▁brims	-8996
▁cockt	-8997
▁cubic	-8998
▁cudge	-8999
ALL	-9000
IAL	-9001
UAL	-9002
VIL	-9003
yde	-9004
ALLE	-9005
BALL	-9006
EVIL	-9007
glon	-9008
tica	-9009
▁ugl	-9010
ALLEY	-9011
CTUAL	-9012
NEVIL	-9013
eging	-9014
▁2002	-9015
▁Amid	-9016
▁Hyde	-9017
▁mews	-9018
ENTIAL	-9019
irmity	-9020
kinson	-9021
▁Eglon	-9022
▁deeds	-9023
▁deuce	-9024
▁docks	-9025
▁drama	-9026
▁dregs	-9027
▁drows	-9028
▁eaten	-9029
▁emigr	-9030
▁ensue	-9031
▁exerc	-9032
▁exhib	-9033
▁fills	-9034
▁focus	-9035
▁fumes	-9036
▁funds	-9037
▁gospe	-9038
▁griev	-9039
▁ignot	-9040
▁items	-9041
▁jokes	-9042
▁knelt	-9043
▁lapse	-9044
▁lemon	-9045
▁lucid	-9046
▁mortg	-9047
▁nails	-9048
▁naked	-9049
▁oaths	-9050
▁obese	-9051
▁odour	-9052
▁pearl	-9053
▁petul	-9054
▁prior	-9055
▁prize	-9056
▁pursu	-9057
▁riser	-9058
▁risks	-9059
▁rural	-9060
▁sally	-9061
▁seeds	-9062
▁shudd	-9063
▁souls	-9064
▁splas	-9065
▁squat	-9066
▁swoll	-9067
▁texts	-9068
▁trium	-9069
▁trove	-9070
▁tunes	-9071
▁unfin	-9072
▁unoff	-9073
▁venom	-9074
▁wagon	-9075
▁waned	-9076
▁weedy	-9077
▁wines	-9078
▁wrack	-9079
$5,000)	-9080
221541.	-9081
Austral	-9082
CHANTAB	-9083
Capital	-9084
Dearest	-9085
Farlane	-9086
IDENTAL	-9087
NEVILLE	-9088
ONATION	-9089
Perfect	-9090
Showing	-9091
Through	-9092
UCASTLE	-9093
UENTIAL	-9094
abiding	-9095
addling	-9096
agonist	-9097
ameness	-9098
anchise	-9099
”),	-9100
▁5.	-9101
▁59	-9102
▁5:	-9103
▁64	-9104
OUND	-9105
blue	-9106
eleg	-9107
moor	-9108
nify	-9109
▁596	-9110
▁5:1	-9111
▁64-	-9112
▁BUT	-9113
▁THU	-9114
arris	-9115
scape	-9116
straw	-9117
swept	-9118
▁596-	-9119
▁5:14	-9120
▁64-6	-9121
arrant	-9122
aubing	-9123
chmoor	-9124
emnify	-9125
eology	-9126
rusted	-9127
scribe	-9128
ursion	-9129
whiske	-9130
▁1000.	-9131
▁1888—	-9132
▁596-1	-9133
▁FOUND	-9134
▁THUMB	-9135
▁Teleg	-9136
▁ameth	-9137
▁blurs	-9138
▁bunch	-9139
▁soldi	-9140
▁steth	-9141
ACHELOR	-9142
Captain	-9143
affaire	-9144
anciful	-9145
awdling	-9146
claimed	-9147
ddering	-9148
dentity	-9149
eastern	-9150
entiful	-9151
etropol	-9152
evenson	-9153
factory	-9154
fingers	-9155
glasses	-9156
groomed	-9157
hopeful	-9158
houette	-9159
iculate	-9160
iencies	-9161
ilitate	-9162
imental	-9163
ishable	-9164
istingu	-9165
itchard	-9166
ivision	-9167
lapsing	-9168
loading	-9169
ltimate	-9170
mailing	-9171
minated	-9172
opening	-9173
otesque	-9174
picuous	-9175
roaches	-9176
ropriet	-9177
russian	-9178
schools	-9179
scummed	-9180
service	-9181
sterior	-9182
suicide	-9183
therege	-9184
ulphate	-9185
umbrous	-9186
umerous	-9187
urposes	-9188
urtured	-9189
vanised	-9190
welcome	-9191
whether	-9192
wreaths	-9193
▁1890.”	-9194
▁596-18	-9195
▁Apache	-9196
▁Attica	-9197
▁August	-9198
▁Barque	-9199
90,	-9200
ORT	-9201
jug	-9202
▁80	-9203
Murd	-9204
NTRA	-9205
ORON	-9206
harf	-9207
ocal	-9208
tale	-9209
▁20%	-9210
▁809	-9211
▁TRA	-9212
▁USE	-9213
▁tug	-9214
After	-9215
ORONE	-9216
ORTON	-9217
imacy	-9218
inacy	-9219
omale	-9220
▁Male	-9221
▁TRAD	-9222
▁Wimp	-9223
▁funn	-9224
▁gear	-9225
▁plug	-9226
▁tonn	-9227
▁’90,	-9228
NTRACT	-9229
ORONET	-9230
omalee	-9231
▁Local	-9232
▁Saxon	-9233
▁Wharf	-9234
▁beech	-9235
▁fleet	-9236
▁fraud	-9237
▁plugs	-9238
▁sturd	-9239
unteers	-9240
▁Behind	-9241
▁Better	-9242
▁Calcut	-9243
▁Cassel	-9244
▁Cuvier	-9245
▁DAMAGE	-9246
▁Defect	-9247
▁Dundas	-9248
▁ENGINE	-9249
▁Endell	-9250
▁Franco	-9251
▁Giving	-9252
▁Horace	-9253
▁LIABLE	-9254
▁Listen	-9255
▁Living	-9256
▁Making	-9257
▁Market	-9258
▁Menend	-9259
▁Montan	-9260
▁NEGLIG	-9261
▁NORTON	-9262
▁NOTICE	-9263
▁Nearly	-9264
▁Noncon	-9265
▁ORANGE	-9266
▁Office	-9267
▁POSSIB	-9268
▁Please	-9269
▁Police	-9270
▁Prince	-9271
▁Quince	-9272
▁REPLAC	-9273
▁SPECKL	-9274
▁STRICT	-9275
▁Seeing	-9276
▁Sholto	-9277
▁Sigism	-9278
▁Strand	-9279
▁TRADEM	-9280
▁Tennes	-9281
▁Thrust	-9282
▁Victor	-9283
▁Warbur	-9284
▁Wooden	-9285
▁absorb	-9286
▁agrees	-9287
▁amethy	-9288
▁ancest	-9289
▁antics	-9290
▁attics	-9291
▁balust	-9292
▁banged	-9293
▁beasts	-9294
▁cherry	-9295
▁claret	-9296
▁combin	-9297
▁coquet	-9298
▁counse	-9299
enns	-9300
▁ADL	-9301
▁PLE	-9302
Exact	-9303
arpet	-9304
wreck	-9305
▁Pips	-9306
▁Tues	-9307
▁calf	-9308
alsall	-9309
ennsyl	-9310
strung	-9311
▁ADLER	-9312
▁Sholt	-9313
▁Westp	-9314
▁folks	-9315
▁magic	-9316
▁neckt	-9317
▁sadly	-9318
▁ships	-9319
▁squal	-9320
▁stagn	-9321
▁throb	-9322
▁unrep	-9323
▁verbs	-9324
▁vivid	-9325
Exactly	-9326
ambered	-9327
arpeted	-9328
avering	-9329
hensive	-9330
repancy	-9331
▁PLEASE	-9332
▁checkm	-9333
▁checks	-9334
▁damage	-9335
▁digest	-9336
▁dilate	-9337
▁disput	-9338
▁dreamy	-9339
▁duplic	-9340
▁ebbing	-9341
▁ensued	-9342
▁exists	-9343
▁extrem	-9344
▁filial	-9345
▁fonder	-9346
▁frayed	-9347
▁gainer	-9348
▁gallop	-9349
▁greeng	-9350
▁grimly	-9351
▁hidden	-9352
▁hoping	-9353
▁hunted	-9354
▁indulg	-9355
▁ingenu	-9356
▁jolted	-9357
▁judged	-9358
▁kissed	-9359
▁licens	-9360
▁loaths	-9361
▁margin	-9362
▁mascul	-9363
▁masked	-9364
▁masses	-9365
▁meadow	-9366
▁mercif	-9367
▁mortal	-9368
▁mortar	-9369
▁orgies	-9370
▁pallet	-9371
▁pallor	-9372
▁panted	-9373
▁peaked	-9374
▁peeled	-9375
▁period	-9376
▁pieces	-9377
▁pierce	-9378
▁piping	-9379
▁poetic	-9380
▁poetry	-9381
▁pokers	-9382
▁preocc	-9383
▁princi	-9384
▁prints	-9385
▁punish	-9386
▁purest	-9387
▁pursue	-9388
▁quench	-9389
▁rejoin	-9390
▁relics	-9391
▁repeat	-9392
▁risers	-9393
▁rumble	-9394
▁rushes	-9395
▁rustic	-9396
▁scenes	-9397
▁scrawl	-9398
▁screen	-9399
IND	-9400
ISS	-9401
UND	-9402
WIS	-9403
www	-9404
FUND	-9405
NDER	-9406
WIST	-9407
▁501	-9408
▁AND	-9409
appro	-9410
cloak	-9411
nosed	-9412
ogany	-9413
orrig	-9414
otany	-9415
rigue	-9416
webby	-9417
white	-9418
▁501(	-9419
▁Folk	-9420
▁Grit	-9421
▁Isle	-9422
▁KIND	-9423
▁MISS	-9424
WISTED	-9425
affold	-9426
bwebby	-9427
estaff	-9428
graded	-9429
iantly	-9430
ledges	-9431
penter	-9432
unatic	-9433
▁Grice	-9434
▁UNDER	-9435
▁sprig	-9436
ahogany	-9437
kestaff	-9438
moisell	-9439
ologise	-9440
ordsman	-9441
▁Botany	-9442
▁REFUND	-9443
▁caraff	-9444
▁cheekb	-9445
▁embarr	-9446
▁finely	-9447
▁hungri	-9448
▁occupy	-9449
▁sewing	-9450
▁shrimp	-9451
▁slavey	-9452
▁slopes	-9453
▁soaked	-9454
▁softer	-9455
▁sorely	-9456
▁spirit	-9457
▁squire	-9458
▁stormy	-9459
▁stuffs	-9460
▁sturdy	-9461
▁suitor	-9462
▁sunset	-9463
▁superb	-9464
▁taketh	-9465
▁tangle	-9466
▁tested	-9467
▁tinged	-9468
▁trials	-9469
▁triang	-9470
▁tricks	-9471
▁triump	-9472
▁trunks	-9473
▁twitch	-9474
▁unburn	-9475
▁uneasy	-9476
▁unpack	-9477
▁urgent	-9478
▁urging	-9479
▁vainly	-9480
▁verify	-9481
▁verron	-9482
▁virtue	-9483
▁vulner	-9484
▁wagons	-9485
▁warmed	-9486
▁warmes	-9487
▁weaken	-9488
▁wearer	-9489
▁wearis	-9490
▁welcom	-9491
▁wicket	-9492
ARAGRAPH	-9493
Anything	-9494
BALLARAT	-9495
December	-9496
ONATIONS	-9497
Prussian	-9498
absolute	-9499
ESS	-9500
Data	-9501
NESS	-9502
ewel	-9503
uvre	-9504
énou	-9505
▁err	-9506
▁’82	-9507
▁’87	-9508
▁’89	-9509
Bring	-9510
Stoke	-9511
accat	-9512
burst	-9513
dénou	-9514
ifico	-9515
named	-9516
queat	-9517
rilly	-9518
ubert	-9519
welve	-9520
œuvre	-9521
▁GIVE	-9522
▁bags	-9523
▁diab	-9524
▁pals	-9525
▁’89—	-9526
ITNESS	-9527
accato	-9528
bursts	-9529
▁Jerem	-9530
▁Jewel	-9531
▁Spies	-9532
▁billy	-9533
▁penny	-9534
▁tents	-9535
berties	-9536
cedents	-9537
erilled	-9538
ificant	-9539
laubert	-9540
noticed	-9541
oisoner	-9542
rington	-9543
▁Filled	-9544
▁Hercul	-9545
▁Twelve	-9546
▁allude	-9547
▁cheque	-9548
▁deport	-9549
▁destit	-9550
▁diabet	-9551
▁divers	-9552
▁errone	-9553
▁hugged	-9554
▁seamed	-9555
aciation	-9556
aciously	-9557
aintiest	-9558
arintosh	-9559
assitude	-9560
auritius	-9561
boration	-9562
crutable	-9563
drochlor	-9564
droppers	-9565
ederates	-9566
eptember	-9567
ersfield	-9568
estering	-9569
federate	-9570
hibition	-9571
hronicle	-9572
humoured	-9573
igiously	-9574
iminated	-9575
irchmoor	-9576
itecture	-9577
junction	-9578
marriage	-9579
moiselle	-9580
nonymous	-9581
oncerned	-9582
onnected	-9583
ottering	-9584
poisoner	-9585
poration	-9586
precious	-9587
queathed	-9588
remember	-9589
renticed	-9590
ropriate	-9591
secution	-9592
servants	-9593
severing	-9594
smelling	-9595
stematic	-9596
stricken	-9597
struther	-9598
terpaned	-9599
alet	-9600
cogn	-9601
bbies	-9602
bbily	-9603
bbler	-9604
bbots	-9605
engal	-9606
gnant	-9607
idded	-9608
loses	-9609
▁Cobb	-9610
▁fabr	-9611
▁wiry	-9612
alsing	-9613
cognit	-9614
engers	-9615
lidded	-9616
oosing	-9617
ricate	-9618
uggage	-9619
ugging	-9620
ugnant	-9621
▁Goodw	-9622
▁carré	-9623
▁diver	-9624
▁irres	-9625
▁rival	-9626
▁slugg	-9627
▁taill	-9628
▁valet	-9629
Proceed	-9630
avenged	-9631
cognito	-9632
letions	-9633
ometric	-9634
▁Abbots	-9635
▁Bengal	-9636
▁accomm	-9637
▁brazen	-9638
▁carrée	-9639
▁fabric	-9640
▁shouts	-9641
▁tomboy	-9642
arehouse	-9643
ufactory	-9644
uminated	-9645
▁$5,000)	-9646
▁11:15.”	-9647
▁11:30.”	-9648
▁14,000,	-9649
▁30,000;	-9650
▁Aldersg	-9651
▁Amateur	-9652
▁Andover	-9653
▁Apaches	-9654
▁Briefly	-9655
▁CORONET	-9656
▁Chamber	-9657
▁Chester	-9658
▁Chinese	-9659
▁Clearly	-9660
▁Clotild	-9661
▁Despite	-9662
▁EXPRESS	-9663
▁Eustace	-9664
▁FITNESS	-9665
▁Getting	-9666
▁Hayling	-9667
▁Indians	-9668
▁Instead	-9669
▁Looking	-9670
▁Montana	-9671
▁Pennsyl	-9672
▁Princip	-9673
▁Quincey	-9674
▁Regency	-9675
▁Replace	-9676
▁Revenue	-9677
▁Running	-9678
▁SCANDAL	-9679
▁Saviour	-9680
▁Service	-9681
▁Several	-9682
▁Sholtos	-9683
▁Special	-9684
▁Theolog	-9685
▁Trepoff	-9686
▁Twisted	-9687
▁Updated	-9688
▁Walsall	-9689
▁Walsing	-9690
▁Wimpole	-9691
▁abusive	-9692
▁adapted	-9693
▁amateur	-9694
▁amazing	-9695
▁anatomy	-9696
▁ancient	-9697
▁animals	-9698
▁artific	-9699
ORK	-9700
Imit	-9701
▁184	-9702
▁END	-9703
▁Rec	-9704
▁“10	-9705
Const	-9706
olumn	-9707
ruded	-9708
unche	-9709
▁1846	-9710
▁Jury	-9711
▁News	-9712
▁Petr	-9713
▁WORK	-9714
▁rien	-9715
▁rive	-9716
column	-9717
mander	-9718
▁Peter	-9719
▁aided	-9720
▁cries	-9721
▁diade	-9722
dragged	-9723
ecution	-9724
eningen	-9725
horrent	-9726
oscombe	-9727
ouching	-9728
umspect	-9729
uncheon	-9730
urbably	-9731
▁1846.’	-9732
▁Archie	-9733
▁BOHEMI	-9734
▁Robber	-9735
▁beginn	-9736
▁bigger	-9737
▁bottle	-9738
▁depose	-9739
▁diadem	-9740
▁errors	-9741
▁feeble	-9742
▁litter	-9743
▁permit	-9744
▁stupid	-9745
▁suburb	-9746
Boscombe	-9747
Imitated	-9748
Meningen	-9749
renching	-9750
▁BOHEMIA	-9751
▁Boswell	-9752
▁Juryman	-9753
▁Robbery	-9754
▁Someone	-9755
▁Willows	-9756
▁aspired	-9757
▁averted	-9758
▁awaited	-9759
▁balance	-9760
▁balustr	-9761
▁bearded	-9762
▁bedtime	-9763
▁bequest	-9764
▁biassed	-9765
▁binding	-9766
▁blinked	-9767
▁blotted	-9768
▁bluster	-9769
▁breastp	-9770
▁builder	-9771
▁bumping	-9772
▁bundles	-9773
▁burglar	-9774
▁buzzing	-9775
▁cadaver	-9776
▁capture	-9777
▁caraffe	-9778
▁cashbox	-9779
▁casting	-9780
▁century	-9781
▁chaffed	-9782
▁chamois	-9783
▁charges	-9784
▁chewing	-9785
▁cleanly	-9786
▁climate	-9787
▁climbed	-9788
▁cluster	-9789
▁cobbler	-9790
▁cocking	-9791
▁coincid	-9792
▁constru	-9793
▁corrupt	-9794
▁couples	-9795
▁cousins	-9796
▁crusted	-9797
▁cynical	-9798
▁daytime	-9799
ARK	-9800
ARY	-9801
Tex	-9802
VED	-9803
▁4,	-9804
▁47	-9805
MARY	-9806
exic	-9807
lley	-9808
mbra	-9809
semb	-9810
▁Emb	-9811
▁jez	-9812
OLVED	-9813
Texas	-9814
alify	-9815
choes	-9816
exico	-9817
exist	-9818
ravel	-9819
▁4000	-9820
▁4700	-9821
aleful	-9822
except	-9823
ground	-9824
hedral	-9825
remely	-9826
stages	-9827
▁1883.	-9828
▁astra	-9829
▁await	-9830
▁fruit	-9831
▁gipsy	-9832
▁pages	-9833
▁rifle	-9834
▁sends	-9835
qualify	-9836
sembled	-9837
▁4000.”	-9838
▁Embank	-9839
▁Mexico	-9840
▁Scotia	-9841
▁astrak	-9842
▁astute	-9843
▁causes	-9844
▁earned	-9845
▁echoes	-9846
▁hinted	-9847
▁jezail	-9848
▁meddle	-9849
▁membra	-9850
▁stragg	-9851
▁transc	-9852
▁variet	-9853
▁volley	-9854
attening	-9855
existing	-9856
xtremely	-9857
▁Already	-9858
▁Germans	-9859
▁Knowing	-9860
▁baleful	-9861
▁conceiv	-9862
▁cooking	-9863
▁deceive	-9864
▁defects	-9865
▁degener	-9866
▁deluded	-9867
▁deposed	-9868
▁dipping	-9869
▁dismant	-9870
▁disprop	-9871
▁distaff	-9872
▁doubled	-9873
▁dweller	-9874
▁earlier	-9875
▁ejected	-9876
▁elbowed	-9877
▁emerald	-9878
▁employs	-9879
▁employé	-9880
▁emptied	-9881
▁enjoyed	-9882
▁enterpr	-9883
▁episode	-9884
▁essence	-9885
▁evolved	-9886
▁excuses	-9887
▁exhilar	-9888
▁faintly	-9889
▁fancier	-9890
▁fatally	-9891
▁fiction	-9892
▁filling	-9893
▁firemen	-9894
▁flagged	-9895
▁flecked	-9896
▁folding	-9897
▁footmen	-9898
▁forceps	-9899
.7.	-9900
50,	-9901
ARE	-9902
NER	-9903
PER	-9904
▁iv	-9905
EARE	-9906
PPER	-9907
WNER	-9908
ival	-9909
▁MER	-9910
burnt	-9911
eBook	-9912
estiv	-9913
ipper	-9914
olony	-9915
onium	-9916
▁250,	-9917
▁casc	-9918
▁rasc	-9919
EAREST	-9920
heming	-9921
ivance	-9922
oolery	-9923
seller	-9924
zzling	-9925
▁OWNER	-9926
▁activ	-9927
▁advoc	-9928
▁badge	-9929
▁bandy	-9930
▁crest	-9931
▁idler	-9932
▁ivory	-9933
▁upset	-9934
▁vehem	-9935
ettered	-9936
ibility	-9937
▁COPPER	-9938
▁Colony	-9939
▁boomed	-9940
▁bounds	-9941
▁chival	-9942
▁colony	-9943
▁festiv	-9944
▁lovers	-9945
▁nipper	-9946
▁played	-9947
▁provin	-9948
▁provis	-9949
▁rasher	-9950
▁taller	-9951
▁DEAREST	-9952
▁Opening	-9953
▁appeals	-9954
▁breadth	-9955
▁cascade	-9956
▁contrad	-9957
▁enables	-9958
▁forgery	-9959
▁frosted	-9960
▁fumbled	-9961
▁furnish	-9962
▁gaining	-9963
▁garment	-9964
▁geology	-9965
▁glisten	-9966
▁gossips	-9967
▁grinned	-9968
▁harmony	-9969
▁harshly	-9970
▁hastily	-9971
▁healthy	-9972
▁hinders	-9973
▁humbler	-9974
▁ignotum	-9975
▁illness	-9976
▁imitate	-9977
▁implied	-9978
▁implies	-9979
▁impossi	-9980
▁include	-9981
▁infring	-9982
▁inherit	-9983
▁insists	-9984
▁interim	-9985
▁interru	-9986
▁jesting	-9987
▁jutting	-9988
▁lateral	-9989
▁limping	-9990
▁loathed	-9991
▁luggage	-9992
▁lunatic	-9993
▁lurking	-9994
▁magistr	-9995
▁mainten	-9996
▁mansion	-9997
▁margins	-9998
▁marines	-9999
top	-10000
▁3.	-10001
Stop	-10002
bres	-10003
▁Imp	-10004
▁Leb	-10005
spend	-10006
umpet	-10007
èbres	-10008
▁crab	-10009
▁gift	-10010
▁verb	-10011
Having	-10012
bourne	-10013
estern	-10014
insane	-10015
lèbres	-10016
topped	-10017
▁Leave	-10018
▁Leban	-10019
▁Noble	-10020
▁bleak	-10021
▁calam	-10022
▁chins	-10023
▁cragg	-10024
▁demon	-10025
▁divan	-10026
▁drown	-10027
▁patch	-10028
▁scept	-10029
▁shift	-10030
▁slipp	-10031
▁stren	-10032
▁strip	-10033
▁waxed	-10034
anlight	-10035
arewell	-10036
itherto	-10037
pending	-10038
spended	-10039
élèbres	-10040
▁begins	-10041
▁craggy	-10042
▁decept	-10043
▁denial	-10044
▁gummed	-10045
▁injust	-10046
▁relish	-10047
▁shades	-10048
▁verbat	-10049
Farewell	-10050
elbourne	-10051
lighting	-10052
▁Lebanon	-10053
▁acquies	-10054
▁denying	-10055
▁drowned	-10056
▁hinting	-10057
▁mastery	-10058
▁muscles	-10059
▁necktie	-10060
▁negroes	-10061
▁nitrate	-10062
▁offhand	-10063
▁outdoor	-10064
▁outline	-10065
▁overwhe	-10066
▁painted	-10067
▁pausing	-10068
▁peeress	-10069
▁pencils	-10070
▁persist	-10071
▁petered	-10072
▁pitiful	-10073
▁plainer	-10074
▁planned	-10075
▁planter	-10076
▁plumped	-10077
▁pompous	-10078
▁precaut	-10079
▁program	-10080
▁provinc	-10081
▁rabbits	-10082
▁rashers	-10083
▁realism	-10084
▁reconst	-10085
▁remembr	-10086
▁renamed	-10087
▁renewed	-10088
▁ridicul	-10089
▁riveted	-10090
▁rolling	-10091
▁royalty	-10092
▁ruffian	-10093
▁sallies	-10094
▁saluted	-10095
▁saviour	-10096
▁sceptic	-10097
▁screams	-10098
▁selfish	-10099
▁($	-10100
▁(3	-10101
▁(8	-10102
beds	-10103
glow	-10104
▁($1	-10105
▁(80	-10106
▁226	-10107
▁Soc	-10108
Dirty	-10109
Eglow	-10110
orbed	-10111
▁(801	-10112
▁caps	-10113
▁coup	-10114
▁defe	-10115
▁deny	-10116
▁gush	-10117
▁joll	-10118
▁tons	-10119
▁tune	-10120
loring	-10121
oughed	-10122
riding	-10123
▁(801)	-10124
▁Think	-10125
▁Thumb	-10126
▁boxed	-10127
▁burly	-10128
▁coura	-10129
▁defic	-10130
▁filth	-10131
▁meets	-10132
▁penal	-10133
▁piled	-10134
▁sunbe	-10135
▁sweat	-10136
▁wager	-10137
hundred	-10138
otected	-10139
▁Though	-10140
▁burden	-10141
▁define	-10142
▁defray	-10143
▁exclud	-10144
▁filthy	-10145
▁hailed	-10146
▁mouths	-10147
▁trains	-10148
▁tremor	-10149
absorbed	-10150
artyrdom	-10151
▁Society	-10152
▁branded	-10153
▁broader	-10154
▁chucked	-10155
▁collect	-10156
▁coupled	-10157
▁courage	-10158
▁defence	-10159
▁exclude	-10160
▁frankly	-10161
▁goading	-10162
▁legally	-10163
▁senders	-10164
▁serpent	-10165
▁shadows	-10166
▁shrilly	-10167
▁simplic	-10168
▁slapped	-10169
▁slipper	-10170
▁slurred	-10171
▁sobbing	-10172
▁sobered	-10173
▁soothed	-10174
▁sponged	-10175
▁squalid	-10176
▁stagger	-10177
▁stamped	-10178
▁steamer	-10179
▁stirred	-10180
▁stuffed	-10181
▁sunbeam	-10182
▁survive	-10183
▁swaying	-10184
▁sweetly	-10185
▁swimmer	-10186
▁symptom	-10187
▁tailing	-10188
▁tallied	-10189
▁tallish	-10190
▁texture	-10191
▁thicket	-10192
▁thickly	-10193
▁threats	-10194
▁tiptoes	-10195
▁tonnage	-10196
▁tricked	-10197
▁trimmed	-10198
▁trooped	-10199
END	-10200
Ins	-10201
REN	-10202
VEN	-10203
IREN	-10204
ifax	-10205
▁Bax	-10206
Exper	-10207
IRENE	-10208
March	-10209
Quire	-10210
alian	-10211
duous	-10212
isian	-10213
ropes	-10214
throp	-10215
▁EVEN	-10216
▁Eley	-10217
▁SEND	-10218
▁ampl	-10219
▁coax	-10220
▁humd	-10221
▁norm	-10222
Hosmer	-10223
alifax	-10224
iolate	-10225
isiana	-10226
morand	-10227
sailed	-10228
udible	-10229
usible	-10230
▁Bible	-10231
▁Crime	-10232
▁Scott	-10233
▁Wilhe	-10234
▁convo	-10235
▁falls	-10236
▁humdr	-10237
▁joint	-10238
▁milit	-10239
▁pasty	-10240
▁shrug	-10241
anthrop	-10242
istible	-10243
moranda	-10244
ossibly	-10245
stories	-10246
uthless	-10247
▁Baxter	-10248
▁Wilhel	-10249
▁convoy	-10250
▁convul	-10251
▁encamp	-10252
▁humour	-10253
▁librar	-10254
▁midway	-10255
▁normal	-10256
▁wedged	-10257
▁winced	-10258
▁writes	-10259
ectioner	-10260
ouisiana	-10261
possibly	-10262
▁Halifax	-10263
▁Italian	-10264
▁McQuire	-10265
▁Turning	-10266
▁Wilhelm	-10267
▁arduous	-10268
▁audible	-10269
▁coaxing	-10270
▁figured	-10271
▁humdrum	-10272
▁imposed	-10273
▁monarch	-10274
▁tropics	-10275
▁twinkle	-10276
▁twitter	-10277
▁ulsters	-10278
▁unbreak	-10279
▁uncompr	-10280
▁undergo	-10281
▁ungener	-10282
▁ungover	-10283
▁unravel	-10284
▁unsolic	-10285
▁urgency	-10286
▁various	-10287
▁verrons	-10288
▁vessels	-10289
▁vestige	-10290
▁victory	-10291
▁viewing	-10292
▁volumes	-10293
▁wadding	-10294
▁warrant	-10295
▁welcome	-10296
▁wincing	-10297
▁workmen	-10298
▁wounded	-10299
eys	-10300
John	-10301
circ	-10302
onny	-10303
they	-10304
▁Add	-10305
Think	-10306
rence	-10307
▁Next	-10308
▁barb	-10309
▁barg	-10310
▁boys	-10311
▁naut	-10312
▁shoe	-10313
▁sket	-10314
▁teet	-10315
▁void	-10316
encirc	-10317
posity	-10318
▁Thore	-10319
▁awoke	-10320
▁bonny	-10321
▁cabby	-10322
▁forts	-10323
▁limit	-10324
▁limps	-10325
▁regur	-10326
▁rifts	-10327
▁sixty	-10328
▁tears	-10329
osphere	-10330
urrence	-10331
▁1869,”	-10332
▁alleys	-10333
▁barbar	-10334
▁barber	-10335
▁barrow	-10336
▁device	-10337
▁dismay	-10338
▁keener	-10339
▁recoil	-10340
▁regain	-10341
▁region	-10342
▁regurg	-10343
▁shoots	-10344
▁shoves	-10345
▁teetot	-10346
mosphere	-10347
ominable	-10348
omposity	-10349
▁Doctors	-10350
▁Thoreau	-10351
▁Through	-10352
▁assures	-10353
▁bargain	-10354
▁roadway	-10355
▁secrets	-10356
▁thereby	-10357
▁writers	-10358
Chronicle	-10359
Constable	-10360
Convinced	-10361
Evidently	-10362
Inspector	-10363
Perfectly	-10364
Secretary	-10365
Shillings	-10366
affolding	-10367
alvanised	-10368
breakfast	-10369
ccurrence	-10370
ccustomed	-10371
ceability	-10372
copyright	-10373
encircled	-10374
ensington	-10375
entangled	-10376
evidently	-10377
excellent	-10378
gentlemen	-10379
iculating	-10380
ilanthrop	-10381
incomalee	-10382
liability	-10383
ndirectly	-10384
olunteers	-10385
ppishness	-10386
protected	-10387
regarding	-10388
ressively	-10389
ributions	-10390
steadings	-10391
tecedents	-10392
trademark	-10393
umberland	-10394
whiskered	-10395
▁Absolute	-10396
▁Addition	-10397
▁Atkinson	-10398
▁BACHELOR	-10399
▁41	-10400
Read	-10401
addy	-10402
girl	-10403
imbo	-10404
roud	-10405
tier	-10406
▁41⁄	-10407
Sophy	-10408
apier	-10409
asier	-10410
chain	-10411
faddy	-10412
kimbo	-10413
lking	-10414
nails	-10415
upils	-10416
étier	-10417
▁41⁄2	-10418
▁5:15	-10419
▁Eton	-10420
▁Priv	-10421
▁cosy	-10422
▁sots	-10423
Papier	-10424
compre	-10425
estaur	-10426
estead	-10427
herton	-10428
joined	-10429
moking	-10430
métier	-10431
ungent	-10432
unging	-10433
▁Jerse	-10434
▁dived	-10435
▁flags	-10436
▁proud	-10437
▁skull	-10438
▁slung	-10439
▁spots	-10440
▁stead	-10441
▁steal	-10442
▁steep	-10443
▁stool	-10444
ardonic	-10445
arelled	-10446
ception	-10447
culable	-10448
erative	-10449
errible	-10450
esteads	-10451
smoking	-10452
▁Easier	-10453
▁Jersey	-10454
▁Master	-10455
▁Stroud	-10456
▁afflic	-10457
▁akimbo	-10458
▁allows	-10459
▁busier	-10460
▁buying	-10461
▁chased	-10462
▁copier	-10463
▁graver	-10464
▁landed	-10465
▁meanly	-10466
▁pupils	-10467
▁steady	-10468
▁steved	-10469
Terrible	-10470
▁Private	-10471
▁Restaur	-10472
▁Tollers	-10473
▁Without	-10474
▁afflict	-10475
▁edition	-10476
▁pungent	-10477
▁quitted	-10478
▁seeking	-10479
▁sentine	-10480
▁stocked	-10481
▁sulking	-10482
▁warmest	-10483
alculable	-10484
ensioners	-10485
hotograph	-10486
omesteads	-10487
unerative	-10488
ventually	-10489
▁BOSCOMBE	-10490
▁Bachelor	-10491
▁CONTRACT	-10492
▁Calcutta	-10493
▁Cocksure	-10494
▁Consider	-10495
▁Coventry	-10496
▁December	-10497
▁Division	-10498
▁ENGINEER	-10499
BLE	-10500
lobe	-10501
pits	-10502
roof	-10503
upon	-10504
Globe	-10505
Tired	-10506
forty	-10507
igger	-10508
ogene	-10509
umbly	-10510
upied	-10511
▁Dane	-10512
▁Scal	-10513
▁cutt	-10514
▁gibe	-10515
▁infl	-10516
▁ledg	-10517
▁synt	-10518
etired	-10519
haired	-10520
people	-10521
roofed	-10522
▁Drink	-10523
▁Hague	-10524
▁NOBLE	-10525
▁Scala	-10526
▁Shall	-10527
▁abuse	-10528
▁hired	-10529
▁parap	-10530
▁poses	-10531
▁rests	-10532
▁tired	-10533
▁EXCEPT	-10534
▁Public	-10535
▁Severn	-10536
▁crying	-10537
▁deduct	-10538
▁fagged	-10539
▁gospel	-10540
▁league	-10541
▁madman	-10542
▁needle	-10543
▁pariet	-10544
▁propag	-10545
▁ragged	-10546
▁smudge	-10547
▁solder	-10548
entering	-10549
ickering	-10550
▁Mystery	-10551
▁Retired	-10552
▁crumbly	-10553
▁hushing	-10554
▁ledgers	-10555
▁lowered	-10556
▁makings	-10557
▁parapet	-10558
▁parched	-10559
▁payment	-10560
▁probing	-10561
▁profits	-10562
▁quicker	-10563
▁resting	-10564
▁restive	-10565
▁snigger	-10566
▁synthes	-10567
▁European	-10568
▁Freebody	-10569
▁Hercules	-10570
▁Highness	-10571
▁Hitherto	-10572
▁IDENTITY	-10573
▁Internal	-10574
▁Jeremiah	-10575
▁Matheson	-10576
▁Menendez	-10577
▁Metropol	-10578
▁NEGLIGEN	-10579
▁PROVIDED	-10580
▁Patience	-10581
▁Petrarch	-10582
▁RUCASTLE	-10583
▁Recently	-10584
▁Singular	-10585
▁Snapping	-10586
▁Speckled	-10587
▁abandons	-10588
▁abnormal	-10589
▁accommod	-10590
▁accurate	-10591
▁acquired	-10592
▁activity	-10593
▁addicted	-10594
▁advocate	-10595
▁afforded	-10596
▁alleging	-10597
▁alliance	-10598
▁amethyst	-10599
fiz	-10600
izz	-10601
▁40	-10602
▁4_	-10603
#166	-10604
Warm	-10605
mped	-10606
uffs	-10607
wood	-10608
ylum	-10609
▁40?	-10610
▁viz	-10611
#1661	-10612
Stand	-10613
bster	-10614
cuffs	-10615
heads	-10616
oform	-10617
ooped	-10618
stern	-10619
uffal	-10620
uffed	-10621
▁FIVE	-10622
▁Only	-10623
▁dizz	-10624
▁guid	-10625
▁tenf	-10626
#1661]	-10627
Danger	-10628
encies	-10629
houses	-10630
irting	-10631
raided	-10632
uffalo	-10633
uffled	-10634
▁1884—	-10635
▁Hafiz	-10636
▁Whose	-10637
▁bluff	-10638
▁caged	-10639
▁draws	-10640
▁engra	-10641
▁invad	-10642
▁monom	-10643
▁param	-10644
▁shots	-10645
▁venge	-10646
braided	-10647
eculiar	-10648
edience	-10649
fitting	-10650
ovember	-10651
▁#1661]	-10652
▁Engine	-10653
▁actual	-10654
▁artist	-10655
▁asylum	-10656
▁cooped	-10657
▁coster	-10658
▁cursed	-10659
▁engage	-10660
▁financ	-10661
▁finest	-10662
▁fruits	-10663
▁glints	-10664
▁huffed	-10665
▁jutted	-10666
▁purity	-10667
▁sucked	-10668
▁tenant	-10669
▁thread	-10670
▁vizard	-10671
Peculiar	-10672
Standard	-10673
arefully	-10674
illating	-10675
indrance	-10676
iodoform	-10677
▁Another	-10678
▁Anybody	-10679
▁agonies	-10680
▁braving	-10681
▁buffalo	-10682
▁fellows	-10683
▁lobster	-10684
▁mangled	-10685
▁monoman	-10686
▁setting	-10687
▁severed	-10688
▁smashed	-10689
▁tenfold	-10690
▁tramped	-10691
▁wishing	-10692
▁Engineer	-10693
▁November	-10694
▁asserted	-10695
▁assisted	-10696
▁attended	-10697
▁avoiding	-10698
▁balanced	-10699
!’—	-10700
.!’	-10701
00,	-10702
ARB	-10703
THE	-10704
100,	-10705
ARBU	-10706
grey	-10707
ndom	-10708
reen	-10709
text	-10710
uise	-10711
▁Alt	-10712
▁vex	-10713
,100,	-10714
arged	-10715
bably	-10716
fects	-10717
indon	-10718
reenw	-10719
▁aged	-10720
▁dron	-10721
▁emot	-10722
▁lack	-10723
▁mena	-10724
▁snak	-10725
▁snor	-10726
▁sons	-10727
cument	-10728
larged	-10729
mances	-10730
oussel	-10731
▁CARBU	-10732
▁alley	-10733
▁assur	-10734
▁foret	-10735
▁freak	-10736
▁kindl	-10737
▁looph	-10738
▁quins	-10739
▁soles	-10740
▁spine	-10741
Defects	-10742
▁1,100,	-10743
▁Blooms	-10744
▁Greenw	-10745
▁Violet	-10746
▁bruise	-10747
▁butted	-10748
▁forces	-10749
▁hacked	-10750
▁quinsy	-10751
▁random	-10752
▁supple	-10753
▁talker	-10754
▁uncour	-10755
▁wisdom	-10756
Singular	-10757
ometimes	-10758
question	-10759
▁Swindon	-10760
▁altered	-10761
▁comrade	-10762
▁concise	-10763
▁dearest	-10764
▁droning	-10765
▁handled	-10766
▁menaced	-10767
▁moussel	-10768
▁pretext	-10769
▁restore	-10770
▁shading	-10771
▁snakish	-10772
▁snoring	-10773
Sometimes	-10774
formances	-10775
▁Probably	-10776
▁assuring	-10777
▁bandaged	-10778
▁barbaric	-10779
▁bathroom	-10780
▁bearings	-10781
▁beckoned	-10782
▁befallen	-10783
▁betrayed	-10784
▁blunders	-10785
▁boasting	-10786
▁bonniest	-10787
▁boundary	-10788
▁bracelet	-10789
▁breaches	-10790
▁breathed	-10791
▁brighter	-10792
▁brothers	-10793
▁brownish	-10794
▁burglars	-10795
▁bustling	-10796
▁busybody	-10797
▁calamity	-10798
▁captured	-10799
8.	-10800
FO	-10801
58.	-10802
rép	-10803
yon	-10804
FORE	-10805
Hold	-10806
brew	-10807
oken	-10808
▁Arc	-10809
▁Arm	-10810
▁Art	-10811
Whose	-10812
auper	-10813
duced	-10814
neyed	-10815
urean	-10816
ursor	-10817
xical	-10818
▁Gold	-10819
▁Heav	-10820
▁Lyon	-10821
▁batt	-10822
▁curb	-10823
▁fatt	-10824
▁mank	-10825
▁rash	-10826
▁tiar	-10827
attend	-10828
cohere	-10829
ffairs	-10830
irates	-10831
oxical	-10832
répert	-10833
spoken	-10834
▁1858.	-10835
▁Heavy	-10836
▁Inner	-10837
▁Ports	-10838
▁hated	-10839
▁space	-10840
▁tiara	-10841
icurean	-10842
igently	-10843
reatens	-10844
réperto	-10845
uckland	-10846
▁Armour	-10847
▁Artill	-10848
▁BEFORE	-10849
▁Hebrew	-10850
▁Munich	-10851
▁battle	-10852
▁crates	-10853
▁editor	-10854
▁excess	-10855
▁fourte	-10856
▁honest	-10857
▁pauper	-10858
▁proper	-10859
▁quotes	-10860
▁redder	-10861
▁surest	-10862
▁weaker	-10863
adoxical	-10864
coherent	-10865
isations	-10866
▁Affairs	-10867
▁Archery	-10868
▁curving	-10869
▁fattest	-10870
▁mankind	-10871
▁outward	-10872
▁pirates	-10873
▁readers	-10874
Threatens	-10875
attendant	-10876
istration	-10877
visations	-10878
▁Auckland	-10879
▁Paterson	-10880
▁Produced	-10881
▁blanched	-10882
▁careless	-10883
▁catching	-10884
▁changing	-10885
▁cigarett	-10886
▁clanking	-10887
▁clasping	-10888
▁cocksure	-10889
▁cocktail	-10890
▁coldness	-10891
▁collapse	-10892
▁combined	-10893
▁commerce	-10894
▁commonly	-10895
▁composer	-10896
▁concerts	-10897
▁constant	-10898
▁consumed	-10899
sre	-10900
tee	-10901
eely	-10902
eget	-10903
iply	-10904
osia	-10905
sill	-10906
▁nip	-10907
artee	-10908
iffon	-10909
teous	-10910
unday	-10911
▁1870	-10912
▁Down	-10913
▁bash	-10914
▁buck	-10915
▁lays	-10916
▁puck	-10917
▁tuck	-10918
▁util	-10919
egetar	-10920
iffere	-10921
judged	-10922
olence	-10923
ottsre	-10924
▁Since	-10925
▁fetch	-10926
▁lords	-10927
▁mania	-10928
▁mines	-10929
▁occip	-10930
▁refer	-10931
▁tools	-10932
ertific	-10933
ultiply	-10934
▁Harris	-10935
▁Mister	-10936
▁Proble	-10937
▁Sunday	-10938
▁applic	-10939
▁dearly	-10940
▁instep	-10941
▁leader	-10942
▁liking	-10943
▁mister	-10944
▁repaid	-10945
▁settee	-10946
▁steely	-10947
▁theirs	-10948
▁tucked	-10949
ifferent	-10950
ourished	-10951
▁Gottsre	-10952
▁Proosia	-10953
▁Prosper	-10954
▁Vegetar	-10955
▁bashful	-10956
▁boister	-10957
▁buckles	-10958
▁chiffon	-10959
▁extract	-10960
▁utilise	-10961
▁Problems	-10962
▁Whatever	-10963
▁blackest	-10964
▁certific	-10965
▁contempt	-10966
▁converse	-10967
▁convulse	-10968
▁coolness	-10969
▁counsell	-10970
▁creaking	-10971
▁creation	-10972
▁creditor	-10973
▁cringing	-10974
▁crinkled	-10975
▁crippled	-10976
▁crushing	-10977
▁crystall	-10978
▁crystals	-10979
▁cushions	-10980
▁cuttings	-10981
▁cylinder	-10982
▁célèbres	-10983
▁dawdling	-10984
▁dealings	-10985
▁decision	-10986
▁decrepit	-10987
▁degraded	-10988
▁dejected	-10989
▁delusion	-10990
▁demurely	-10991
▁depended	-10992
▁depicted	-10993
▁deranged	-10994
▁descends	-10995
▁designed	-10996
▁detailed	-10997
▁detected	-10998
▁devoured	-10999
zon	-11000
evid	-11001
pret	-11002
weed	-11003
zona	-11004
▁25.	-11005
▁Log	-11006
▁ann	-11007
▁rib	-11008
▁wee	-11009
Alice	-11010
cross	-11011
erret	-11012
icity	-11013
retch	-11014
rians	-11015
ucial	-11016
weigh	-11017
▁Clar	-11018
▁Evid	-11019
▁feat	-11020
▁hate	-11021
▁nail	-11022
▁resc	-11023
▁surp	-11024
▁woke	-11025
Before	-11026
falgar	-11027
preted	-11028
rizona	-11029
▁Clara	-11030
▁Logic	-11031
▁donna	-11032
▁folly	-11033
▁livid	-11034
▁mason	-11035
▁rambl	-11036
▁repla	-11037
▁scrup	-11038
▁speck	-11039
ansions	-11040
evident	-11041
neither	-11042
nothing	-11043
nticity	-11044
osition	-11045
unities	-11046
▁Across	-11047
▁Nature	-11048
▁Prague	-11049
▁annual	-11050
▁assail	-11051
▁breach	-11052
▁cringe	-11053
▁ferret	-11054
▁repair	-11055
▁report	-11056
▁rescue	-11057
▁ribbed	-11058
▁signet	-11059
▁wretch	-11060
estrians	-11061
rafalgar	-11062
▁Arizona	-11063
▁MYSTERY	-11064
▁blasted	-11065
▁chasing	-11066
▁crucial	-11067
▁damaged	-11068
▁formats	-11069
▁masonry	-11070
▁smasher	-11071
▁stethos	-11072
▁surplic	-11073
digiously	-11074
henticity	-11075
▁Evidence	-11076
▁Mansions	-11077
▁accompli	-11078
▁coarsely	-11079
▁detained	-11080
▁disputat	-11081
▁diverted	-11082
▁document	-11083
▁drinking	-11084
▁dustcoat	-11085
▁earliest	-11086
▁eastward	-11087
▁eclipsed	-11088
▁effected	-11089
▁effusive	-11090
▁elements	-11091
▁engraved	-11092
▁enlarged	-11093
▁ensuring	-11094
▁entailed	-11095
▁episodes	-11096
▁equality	-11097
▁equalled	-11098
▁escapade	-11099
HES	-11100
Wat	-11101
aux	-11102
gic	-11103
ran	-11104
wls	-11105
wra	-11106
CHES	-11107
eaux	-11108
life	-11109
rald	-11110
walk	-11111
▁221	-11112
▁26,	-11113
▁dub	-11114
▁enn	-11115
ECHES	-11116
accur	-11117
align	-11118
ingly	-11119
itles	-11120
ubber	-11121
walks	-11122
▁East	-11123
▁Loth	-11124
▁Rock	-11125
▁bram	-11126
▁eggs	-11127
▁ennu	-11128
▁fury	-11129
▁twil	-11130
▁upro	-11131
Watson	-11132
olised	-11133
ottled	-11134
rubber	-11135
server	-11136
ultory	-11137
▁Wight	-11138
▁cable	-11139
▁confr	-11140
▁ennui	-11141
▁enwra	-11142
▁farms	-11143
▁lured	-11144
▁stale	-11145
bolised	-11146
ordeaux	-11147
racters	-11148
racting	-11149
▁brawls	-11150
▁detach	-11151
▁herald	-11152
▁malign	-11153
▁standi	-11154
▁stares	-11155
▁stroll	-11156
▁tragic	-11157
▁uproar	-11158
▁waiter	-11159
▁wreath	-11160
accurate	-11161
ailingly	-11162
iddlesex	-11163
▁BEECHES	-11164
▁Bankers	-11165
▁Fashion	-11166
▁Lothman	-11167
▁Rockies	-11168
▁belated	-11169
▁bramble	-11170
▁dubious	-11171
▁explore	-11172
▁factory	-11173
▁lengthy	-11174
▁mottled	-11175
▁reclaim	-11176
▁tiniest	-11177
preserver	-11178
▁Bordeaux	-11179
▁confront	-11180
▁entitles	-11181
▁escaping	-11182
▁estimate	-11183
▁everyday	-11184
▁exacting	-11185
▁exceeded	-11186
▁exciting	-11187
▁explains	-11188
▁famished	-11189
▁fanlight	-11190
▁farthing	-11191
▁fathomed	-11192
▁fearless	-11193
▁feathers	-11194
▁fighting	-11195
▁flashing	-11196
▁fleeting	-11197
▁flicking	-11198
▁flirting	-11199
ett	-11200
oli	-11201
▁(“	-11202
▁Ku	-11203
Both	-11204
ctav	-11205
seum	-11206
ucle	-11207
▁Sli	-11208
▁bis	-11209
▁tip	-11210
▁vot	-11211
almer	-11212
ctavo	-11213
ettle	-11214
ihood	-11215
omper	-11216
▁Arms	-11217
▁bush	-11218
▁drab	-11219
▁foli	-11220
▁howl	-11221
▁marm	-11222
▁muff	-11223
▁oath	-11224
▁rake	-11225
▁sull	-11226
▁whee	-11227
▁’83.	-11228
ainted	-11229
iature	-11230
irling	-11231
llowed	-11232
ucleus	-11233
▁desir	-11234
▁moves	-11235
▁plied	-11236
▁raved	-11237
▁satin	-11238
▁seize	-11239
▁stepm	-11240
▁wives	-11241
ersonal	-11242
▁Palmer	-11243
▁allied	-11244
▁defend	-11245
▁kettle	-11246
▁marble	-11247
▁museum	-11248
▁octavo	-11249
▁resort	-11250
▁retort	-11251
▁romper	-11252
▁sinned	-11253
▁sullen	-11254
▁voters	-11255
▁whined	-11256
quainted	-11257
▁commiss	-11258
▁distant	-11259
▁foliage	-11260
▁hobbies	-11261
▁nucleus	-11262
▁resound	-11263
▁tugging	-11264
▁wheeled	-11265
onishment	-11266
▁Flaubert	-11267
▁Slipping	-11268
▁Westbury	-11269
▁constern	-11270
▁desirous	-11271
▁fondness	-11272
▁footpath	-11273
▁foremost	-11274
▁foretold	-11275
▁freckled	-11276
▁funniest	-11277
▁gaslight	-11278
▁gasogene	-11279
▁generous	-11280
▁gloomily	-11281
▁grasping	-11282
▁grateful	-11283
▁grievous	-11284
▁gripping	-11285
▁guardian	-11286
▁guidance	-11287
▁hammered	-11288
▁harmless	-11289
▁hesitate	-11290
▁hoarsely	-11291
▁hollowed	-11292
▁horribly	-11293
▁humanity	-11294
▁hungrily	-11295
▁illustri	-11296
▁imminent	-11297
▁implicit	-11298
▁imposing	-11299
3]	-11300
23]	-11301
Try	-11302
jet	-11303
kel	-11304
▁16	-11305
▁IR	-11306
cope	-11307
eply	-11308
mach	-11309
mean	-11310
meet	-11311
omme	-11312
orid	-11313
shot	-11314
sole	-11315
▁IRS	-11316
▁boa	-11317
▁bob	-11318
▁cod	-11319
aiter	-11320
blown	-11321
homme	-11322
ickel	-11323
ilful	-11324
raced	-11325
▁Pass	-11326
▁Prof	-11327
▁bold	-11328
▁ends	-11329
▁hats	-11330
▁’84,	-11331
hesive	-11332
solete	-11333
waiter	-11334
wilful	-11335
▁2023]	-11336
▁codes	-11337
▁dared	-11338
▁entry	-11339
▁femin	-11340
▁goodw	-11341
▁hoard	-11342
▁lithe	-11343
▁waves	-11344
inction	-11345
machine	-11346
meanour	-11347
ndicant	-11348
onville	-11349
▁Deeply	-11350
▁carved	-11351
▁enters	-11352
▁florid	-11353
▁nickel	-11354
▁partly	-11355
▁rounds	-11356
▁trophy	-11357
▁unwise	-11358
▁winter	-11359
jections	-11360
meetings	-11361
ndicants	-11362
omething	-11363
▁Mission	-11364
▁Passing	-11365
▁Profess	-11366
▁breathe	-11367
▁contort	-11368
▁lighted	-11369
▁loading	-11370
▁opposed	-11371
▁parties	-11372
▁slashed	-11373
▁soldier	-11374
▁stables	-11375
▁travels	-11376
something	-11377
▁Contents	-11378
▁adhesive	-11379
▁feminine	-11380
▁goodwill	-11381
▁improbab	-11382
▁incorrig	-11383
▁indirect	-11384
▁inextric	-11385
▁inflamed	-11386
▁informal	-11387
▁inquirer	-11388
▁intellig	-11389
▁intimacy	-11390
▁intrigue	-11391
▁invested	-11392
▁involved	-11393
▁iodoform	-11394
▁isolated	-11395
▁journeys	-11396
▁judicial	-11397
▁ladyship	-11398
▁lameness	-11399
Fre	-11400
Oct	-11401
isp	-11402
low	-11403
ancr	-11404
ancé	-11405
legg	-11406
link	-11407
wisp	-11408
▁ali	-11409
▁emp	-11410
Frequ	-11411
Hotel	-11412
ftily	-11413
gging	-11414
iancé	-11415
liked	-11416
lowly	-11417
ripes	-11418
sened	-11419
▁bile	-11420
▁file	-11421
▁grat	-11422
▁lain	-11423
▁oily	-11424
▁rick	-11425
▁slut	-11426
▁tops	-11427
▁wick	-11428
ancras	-11429
erness	-11430
fiancé	-11431
inched	-11432
licked	-11433
urated	-11434
volcan	-11435
▁Gross	-11436
▁alike	-11437
▁china	-11438
▁fount	-11439
▁loans	-11440
▁mount	-11441
▁shawl	-11442
▁whoso	-11443
Tragedy	-11444
▁ACTUAL	-11445
▁Slowly	-11446
▁beings	-11447
▁empire	-11448
▁finder	-11449
▁gloomy	-11450
▁heaped	-11451
▁preach	-11452
▁recour	-11453
▁sought	-11454
▁spongy	-11455
▁unlink	-11456
▁wicker	-11457
Remember	-11458
Starving	-11459
leggings	-11460
reproach	-11461
volcanic	-11462
▁Neither	-11463
▁Pancras	-11464
▁Stripes	-11465
▁flicked	-11466
▁humours	-11467
▁loftily	-11468
▁mortals	-11469
▁retreat	-11470
▁rickety	-11471
▁undated	-11472
rightened	-11473
▁clinched	-11474
▁disliked	-11475
▁dragging	-11476
▁fountain	-11477
▁language	-11478
▁lanterns	-11479
▁lateness	-11480
▁laudanum	-11481
▁learning	-11482
▁lectures	-11483
▁licensed	-11484
▁lifeless	-11485
▁linoleum	-11486
▁literary	-11487
▁locality	-11488
▁logician	-11489
▁lonelier	-11490
▁loophole	-11491
▁loosened	-11492
▁lowliest	-11493
▁luncheon	-11494
▁magician	-11495
▁mahogany	-11496
▁managing	-11497
▁merchant	-11498
▁military	-11499
AS	-11500
.,’	-11501
16,	-11502
ads	-11503
bod	-11504
rer	-11505
uda	-11506
▁El	-11507
aces	-11508
itud	-11509
rigg	-11510
sect	-11511
uded	-11512
udor	-11513
▁EIN	-11514
▁Pac	-11515
▁mes	-11516
alent	-11517
althy	-11518
anker	-11519
annon	-11520
inson	-11521
oorer	-11522
sects	-11523
▁Club	-11524
▁Coll	-11525
▁abod	-11526
▁blur	-11527
▁harv	-11528
binson	-11529
ermuda	-11530
itudes	-11531
▁Carol	-11532
▁Colle	-11533
▁Eight	-11534
▁Elise	-11535
▁Faces	-11536
▁IMPLI	-11537
▁Tudor	-11538
▁abode	-11539
▁beads	-11540
▁crust	-11541
▁curse	-11542
▁doesn	-11543
▁excav	-11544
▁inart	-11545
▁panop	-11546
▁safes	-11547
▁score	-11548
▁slide	-11549
▁slink	-11550
▁trail	-11551
▁wrigg	-11552
Without	-11553
arition	-11554
bodings	-11555
fulness	-11556
reating	-11557
▁84116,	-11558
▁Cannon	-11559
▁DIRECT	-11560
▁Tanker	-11561
▁detain	-11562
▁devils	-11563
▁donors	-11564
▁expost	-11565
▁extend	-11566
▁facing	-11567
▁meshes	-11568
▁poorer	-11569
▁scales	-11570
▁scores	-11571
▁talent	-11572
▁tricky	-11573
fortable	-11574
▁Bermuda	-11575
▁Carolin	-11576
▁College	-11577
▁IMPLIED	-11578
▁Pacific	-11579
▁alluded	-11580
▁compose	-11581
▁express	-11582
▁fringed	-11583
▁harvest	-11584
▁insects	-11585
▁mustard	-11586
▁panoply	-11587
▁rightly	-11588
▁underne	-11589
▁Creating	-11590
▁Robinson	-11591
▁absolved	-11592
▁millions	-11593
▁mischief	-11594
▁modified	-11595
▁monomani	-11596
▁monotony	-11597
▁mornings	-11598
▁mortgage	-11599
!—	-11600
Fel	-11601
Inc	-11602
eel	-11603
sac	-11604
tem	-11605
else	-11606
rewe	-11607
tish	-11608
▁Rem	-11609
brush	-11610
ceded	-11611
ryman	-11612
ullet	-11613
▁Full	-11614
▁Lang	-11615
▁betr	-11616
▁crud	-11617
▁doll	-11618
▁dual	-11619
▁sche	-11620
Incred	-11621
Letter	-11622
igured	-11623
reetly	-11624
sacrif	-11625
tailed	-11626
▁1878,	-11627
▁Crewe	-11628
▁exert	-11629
▁flies	-11630
▁grant	-11631
▁smear	-11632
▁tense	-11633
▁tongs	-11634
▁undid	-11635
▁undue	-11636
▁wheel	-11637
Letters	-11638
figured	-11639
genteel	-11640
▁anoint	-11641
▁betrot	-11642
▁gullet	-11643
▁planks	-11644
Felstein	-11645
tempered	-11646
▁Langham	-11647
▁Tiptoes	-11648
▁anoints	-11649
▁boiling	-11650
▁caseful	-11651
▁conceit	-11652
▁crudest	-11653
▁dollars	-11654
▁earshot	-11655
▁peeping	-11656
▁receded	-11657
▁schemer	-11658
▁swollen	-11659
ountryman	-11660
sacrifice	-11661
▁Clotilde	-11662
▁Remember	-11663
▁betrotha	-11664
▁defeated	-11665
▁devilish	-11666
▁granting	-11667
▁lustrous	-11668
▁narrated	-11669
▁notifies	-11670
▁nutshell	-11671
▁obliging	-11672
▁obtained	-11673
▁obtruded	-11674
▁occupied	-11675
▁officers	-11676
▁openings	-11677
▁openness	-11678
▁ornament	-11679
▁outdated	-11680
▁outhouse	-11681
▁outsides	-11682
▁outweigh	-11683
▁overcome	-11684
▁overhead	-11685
▁overhear	-11686
▁overseen	-11687
▁overwhel	-11688
▁paleness	-11689
▁parietal	-11690
▁passages	-11691
▁patentee	-11692
▁paternal	-11693
▁peaceful	-11694
▁periodic	-11695
▁pictured	-11696
▁pleading	-11697
▁plucking	-11698
▁plunging	-11699
lps	-11700
lity	-11701
▁Nov	-11702
▁Vis	-11703
▁arc	-11704
▁ped	-11705
abled	-11706
arson	-11707
dummy	-11708
enfor	-11709
ircle	-11710
jecta	-11711
otton	-11712
reary	-11713
taken	-11714
treat	-11715
ulary	-11716
▁Nova	-11717
▁Save	-11718
▁cave	-11719
▁cult	-11720
▁dies	-11721
▁glam	-11722
▁glow	-11723
▁shud	-11724
breath	-11725
entary	-11726
orious	-11727
player	-11728
vingly	-11729
▁Natur	-11730
▁Stars	-11731
▁arter	-11732
▁blush	-11733
▁caved	-11734
▁chise	-11735
▁dryly	-11736
▁frill	-11737
▁glade	-11738
▁helps	-11739
▁impet	-11740
▁impla	-11741
▁imply	-11742
▁rails	-11743
▁squee	-11744
▁surly	-11745
▁taxes	-11746
▁wears	-11747
abulary	-11748
icircle	-11749
idelity	-11750
isjecta	-11751
jective	-11752
▁Castle	-11753
▁chisel	-11754
▁cotton	-11755
▁disown	-11756
▁dreary	-11757
▁fronts	-11758
▁implac	-11759
▁limped	-11760
▁longed	-11761
▁parson	-11762
▁reared	-11763
▁squeez	-11764
▁tended	-11765
▁valise	-11766
QUENTIAL	-11767
disjecta	-11768
edentary	-11769
micircle	-11770
▁Visited	-11771
▁bedside	-11772
▁chanced	-11773
▁clouded	-11774
▁delayed	-11775
▁enabled	-11776
▁endured	-11777
▁founder	-11778
▁glamour	-11779
▁lookout	-11780
▁proving	-11781
▁shaving	-11782
▁shudder	-11783
▁strayed	-11784
▁thither	-11785
▁trouser	-11786
▁unenfor	-11787
Hampshire	-11788
treatment	-11789
▁arteries	-11790
▁cultured	-11791
▁dreaming	-11792
▁fidelity	-11793
▁populous	-11794
▁pretence	-11795
▁pretends	-11796
▁princess	-11797
▁progress	-11798
▁prompted	-11799
eni	-11800
Lost	-11801
Nous	-11802
enii	-11803
gery	-11804
hail	-11805
host	-11806
tell	-11807
were	-11808
▁Com	-11809
▁Rot	-11810
▁pad	-11811
chaft	-11812
ender	-11813
fever	-11814
fying	-11815
idled	-11816
intry	-11817
never	-11818
orise	-11819
phone	-11820
three	-11821
usage	-11822
▁Comm	-11823
▁Gust	-11824
▁Hare	-11825
▁Mend	-11826
▁Send	-11827
▁base	-11828
▁bled	-11829
▁calt	-11830
▁host	-11831
▁jost	-11832
edlock	-11833
reated	-11834
schaft	-11835
teller	-11836
tender	-11837
▁cares	-11838
▁flock	-11839
▁genii	-11840
▁ghost	-11841
▁gland	-11842
▁grove	-11843
▁scorn	-11844
▁trite	-11845
Wedlock	-11846
created	-11847
lephone	-11848
pefying	-11849
▁Orange	-11850
▁Posted	-11851
▁Rotter	-11852
▁backed	-11853
▁caltro	-11854
▁calves	-11855
▁comely	-11856
▁compil	-11857
▁consum	-11858
▁forger	-11859
▁fought	-11860
▁glands	-11861
▁sidled	-11862
▁villag	-11863
▁wintry	-11864
upefying	-11865
▁Commons	-11866
▁Forgery	-11867
▁Gustave	-11868
▁Rotterd	-11869
▁compass	-11870
▁doorway	-11871
▁notably	-11872
▁offence	-11873
▁sharpen	-11874
▁undoing	-11875
▁whither	-11876
ellschaft	-11877
▁INDIRECT	-11878
▁caltrops	-11879
▁customer	-11880
▁extracts	-11881
▁infernal	-11882
▁jostling	-11883
▁proposal	-11884
▁proposed	-11885
▁publicly	-11886
▁puckered	-11887
▁purchase	-11888
▁pursuers	-11889
▁puzzling	-11890
▁qualific	-11891
▁railings	-11892
▁rambling	-11893
▁rashness	-11894
▁readable	-11895
▁receiver	-11896
▁recesses	-11897
▁recoiled	-11898
▁registry	-11899
yd	-11900
▁RI	-11901
▁Ru	-11902
chie	-11903
ieve	-11904
loyd	-11905
ornw	-11906
pens	-11907
ugit	-11908
▁Dar	-11909
▁RIG	-11910
▁tow	-11911
Great	-11912
anely	-11913
asser	-11914
lance	-11915
loved	-11916
verie	-11917
▁Each	-11918
▁Mort	-11919
▁RIGH	-11920
▁ally	-11921
▁broo	-11922
▁heap	-11923
▁shed	-11924
▁smil	-11925
▁soie	-11926
▁spun	-11927
▁tire	-11928
▁wits	-11929
bright	-11930
orated	-11931
▁Bring	-11932
▁Cornw	-11933
▁Lloyd	-11934
▁RIGHT	-11935
▁achie	-11936
▁fugit	-11937
▁hullo	-11938
▁mates	-11939
▁spout	-11940
▁swash	-11941
▁tower	-11942
▁trout	-11943
assable	-11944
comings	-11945
spasser	-11946
▁Mortim	-11947
▁august	-11948
▁brooch	-11949
▁mature	-11950
▁muster	-11951
▁patron	-11952
▁rocked	-11953
▁smiles	-11954
▁stress	-11955
▁values	-11956
▁vestas	-11957
▁wooded	-11958
pensated	-11959
▁Captain	-11960
▁Darling	-11961
▁Russian	-11962
▁beloved	-11963
▁derives	-11964
▁expired	-11965
▁footman	-11966
▁quality	-11967
▁relieve	-11968
▁reverie	-11969
▁stoutly	-11970
▁ticking	-11971
▁western	-11972
▁Cornwall	-11973
▁Mortimer	-11974
▁achieved	-11975
▁confound	-11976
▁insanely	-11977
▁numerous	-11978
▁parlance	-11979
▁rejected	-11980
▁rejoiced	-11981
▁relapsed	-11982
▁released	-11983
▁relevant	-11984
▁reliance	-11985
▁removing	-11986
▁reopened	-11987
▁repelled	-11988
▁repented	-11989
▁replaced	-11990
▁reporter	-11991
▁requests	-11992
▁resolved	-11993
▁restless	-11994
▁restored	-11995
▁retorted	-11996
▁revolved	-11997
▁richness	-11998
▁roasting	-11999
fe	-12000
aud	-12001
owl	-12002
▁Od	-12003
adol	-12004
auds	-12005
essa	-12006
feit	-12007
irer	-12008
mine	-12009
rish	-12010
wake	-12011
▁Dev	-12012
▁Dis	-12013
▁amp	-12014
Awake	-12015
Fancy	-12016
adequ	-12017
agged	-12018
agine	-12019
aryta	-12020
imely	-12021
ishly	-12022
licia	-12023
otism	-12024
venly	-12025
▁Find	-12026
▁Fore	-12027
▁Lake	-12028
▁adds	-12029
▁brid	-12030
▁jowl	-12031
▁loit	-12032
▁sine	-12033
▁wate	-12034
entred	-12035
epaper	-12036
gotism	-12037
really	-12038
ulence	-12039
▁Devon	-12040
▁Irish	-12041
▁Mauds	-12042
▁Mered	-12043
▁amply	-12044
▁goals	-12045
▁grabs	-12046
▁rabbi	-12047
▁remed	-12048
▁remon	-12049
▁remor	-12050
▁sinew	-12051
Company	-12052
centred	-12053
entment	-12054
uteness	-12055
▁Alicia	-12056
▁Odessa	-12057
▁baryta	-12058
▁bridal	-12059
▁fairer	-12060
▁headge	-12061
▁jagged	-12062
▁noised	-12063
▁piling	-12064
▁sinewy	-12065
▁trimly	-12066
▁warmth	-12067
adequate	-12068
▁Contral	-12069
▁Foreign	-12070
▁Imagine	-12071
▁Paradol	-12072
▁TWISTED	-12073
▁comment	-12074
▁egotism	-12075
▁forfeit	-12076
▁heaving	-12077
▁legible	-12078
▁presses	-12079
▁remorse	-12080
▁updated	-12081
▁watered	-12082
▁Maudsley	-12083
▁Meredith	-12084
▁expiring	-12085
▁firmness	-12086
▁headgear	-12087
▁headings	-12088
▁imbedded	-12089
▁opulence	-12090
▁remedied	-12091
▁remonstr	-12092
▁ruffians	-12093
▁ruthless	-12094
▁sacrific	-12095
▁scandals	-12096
▁scraping	-12097
▁scruples	-12098
▁seaports	-12099
Ay	-12100
9,”	-12101
ags	-12102
igm	-12103
zag	-12104
▁‘_	-12105
49,”	-12106
agen	-12107
aler	-12108
both	-12109
iger	-12110
look	-12111
mack	-12112
249,”	-12113
igmat	-12114
igued	-12115
igzag	-12116
isite	-12117
issue	-12118
istry	-12119
▁Cook	-12120
▁Wigm	-12121
▁acts	-12122
▁agre	-12123
▁exit	-12124
▁gilt	-12125
▁stap	-12126
▁tags	-12127
▁twig	-12128
agenet	-12129
hingly	-12130
otched	-12131
perial	-12132
urried	-12133
—249,”	-12134
▁Other	-12135
▁Smack	-12136
▁accus	-12137
▁budge	-12138
▁filed	-12139
▁incit	-12140
▁scint	-12141
▁sober	-12142
▁tiger	-12143
quisite	-12144
▁Hankey	-12145
▁Others	-12146
▁agreed	-12147
▁detour	-12148
▁easter	-12149
▁entire	-12150
▁gables	-12151
▁keeper	-12152
▁overha	-12153
▁prizes	-12154
▁shiver	-12155
▁tissue	-12156
▁zigzag	-12157
blotched	-12158
▁Wigmore	-12159
▁accuser	-12160
▁college	-12161
▁enigmat	-12162
▁flitted	-12163
▁incites	-12164
▁staples	-12165
▁tumbler	-12166
antagenet	-12167
ittington	-12168
▁Imperial	-12169
▁awaiting	-12170
▁climbing	-12171
▁easterly	-12172
▁fatigued	-12173
▁flurried	-12174
▁narrowed	-12175
▁overhaul	-12176
▁overlook	-12177
▁secluded	-12178
▁secreted	-12179
▁securing	-12180
▁senility	-12181
▁sensible	-12182
▁sentinel	-12183
▁shabbily	-12184
▁shilling	-12185
▁shutting	-12186
▁sidelong	-12187
▁sideways	-12188
▁simplest	-12189
▁simplify	-12190
▁sketched	-12191
▁slighter	-12192
▁slippery	-12193
▁slurring	-12194
▁smartest	-12195
▁smelling	-12196
▁smoothed	-12197
▁snatches	-12198
▁snuffbox	-12199
Ke	-12200
Owe	-12201
Sar	-12202
UCH	-12203
▁Pl	-12204
▁Pu	-12205
▁’6	-12206
Even	-12207
Keep	-12208
part	-12209
wled	-12210
▁UTF	-12211
▁gum	-12212
▁tum	-12213
▁’60	-12214
Saras	-12215
Their	-12216
arton	-12217
enced	-12218
onder	-12219
rewer	-12220
roned	-12221
ussex	-12222
▁Band	-12223
▁SUCH	-12224
▁Whoa	-12225
▁dart	-12226
▁liar	-12227
▁mice	-12228
▁ours	-12229
▁patt	-12230
▁roll	-12231
▁site	-12232
▁’60’	-12233
enient	-12234
office	-12235
partie	-12236
setter	-12237
▁Known	-12238
▁Thick	-12239
▁liver	-12240
▁moody	-12241
▁murky	-12242
▁unmar	-12243
▁worry	-12244
Evening	-12245
aproned	-12246
ections	-12247
igments	-12248
inkable	-12249
leather	-12250
undrums	-12251
▁Barton	-12252
▁Depend	-12253
▁Puzzle	-12254
▁Sussex	-12255
▁appeal	-12256
▁brassy	-12257
▁brewer	-12258
▁spellb	-12259
▁swayed	-12260
▁tumult	-12261
▁whiter	-12262
▁yonder	-12263
Sarasate	-12264
building	-12265
▁chapter	-12266
▁crawled	-12267
▁darting	-12268
▁gaunter	-12269
▁handing	-12270
▁illegal	-12271
▁lenient	-12272
▁patting	-12273
▁planked	-12274
▁reverse	-12275
▁saddles	-12276
▁steamed	-12277
thinkable	-12278
▁Dockyard	-12279
▁Sections	-12280
▁employee	-12281
▁intended	-12282
▁pigments	-12283
▁softened	-12284
▁soldiers	-12285
▁solitude	-12286
▁sounding	-12287
▁sparkles	-12288
▁speckles	-12289
▁spinster	-12290
▁splashed	-12291
▁spouting	-12292
▁squatted	-12293
▁squeezed	-12294
▁staccato	-12295
▁stagnant	-12296
▁staining	-12297
▁stamping	-12298
▁steaming	-12299
eph	-12300
hic	-12301
ipp	-12302
urk	-12303
Game	-12304
Jeph	-12305
Name	-12306
POSE	-12307
dler	-12308
ippi	-12309
jure	-12310
ongs	-12311
ploy	-12312
rank	-12313
uced	-12314
zure	-12315
▁Yes	-12316
▁que	-12317
▁unw	-12318
RPOSE	-12319
Terse	-12320
adame	-12321
esome	-12322
hicle	-12323
index	-12324
istak	-12325
ployé	-12326
ulant	-12327
▁Hart	-12328
▁Kill	-12329
▁Same	-12330
▁Stay	-12331
▁Turk	-12332
▁canv	-12333
▁cate	-12334
▁cure	-12335
▁gong	-12336
▁lame	-12337
Jephro	-12338
mistak	-12339
▁Azure	-12340
▁Carlo	-12341
▁Marse	-12342
▁categ	-12343
▁cough	-12344
▁queer	-12345
▁quive	-12346
▁slums	-12347
▁songs	-12348
▁theft	-12349
Pending	-12350
employé	-12351
imulant	-12352
issippi	-12353
olesome	-12354
▁Madame	-12355
▁abjure	-12356
▁borrow	-12357
▁canvas	-12358
▁diving	-12359
▁fished	-12360
▁modest	-12361
▁spoils	-12362
▁unprof	-12363
Suddenly	-12364
indexing	-12365
irmishes	-12366
offering	-12367
throwing	-12368
▁PURPOSE	-12369
▁Turkish	-12370
▁advised	-12371
▁bandage	-12372
▁beggary	-12373
▁expound	-12374
▁meddler	-12375
▁pinched	-12376
▁reduced	-12377
▁shouldn	-12378
▁temples	-12379
▁unwound	-12380
▁vehicle	-12381
▁virtues	-12382
▁waggled	-12383
▁Marseill	-12384
▁attained	-12385
▁category	-12386
▁luxuries	-12387
▁quivered	-12388
▁shopping	-12389
▁speeding	-12390
▁stooping	-12391
▁stopping	-12392
▁streaked	-12393
▁stripped	-12394
▁striving	-12395
▁subduing	-12396
▁suburban	-12397
▁succinct	-12398
▁sufficed	-12399
bi	-12400
bij	-12401
lax	-12402
pay	-12403
▁4.	-12404
▁7_	-12405
▁La	-12406
▁Pe	-12407
bies	-12408
hael	-12409
pply	-12410
tive	-12411
wide	-12412
▁dew	-12413
▁dun	-12414
▁til	-12415
bijou	-12416
laxed	-12417
venir	-12418
▁Hers	-12419
▁abom	-12420
▁feed	-12421
▁food	-12422
▁hasp	-12423
▁leap	-12424
acious	-12425
asions	-12426
ichael	-12427
▁Apply	-12428
▁Light	-12429
▁abide	-12430
▁alias	-12431
▁forgo	-12432
▁leaps	-12433
▁prime	-12434
▁stoop	-12435
▁union	-12436
chnical	-12437
estered	-12438
pointed	-12439
▁Chance	-12440
▁People	-12441
▁abound	-12442
▁glimps	-12443
▁offens	-12444
▁parley	-12445
▁reaped	-12446
▁tilted	-12447
▁warren	-12448
▁Michael	-12449
▁amalgam	-12450
▁convert	-12451
▁derbies	-12452
▁deserve	-12453
▁furtive	-12454
▁lighter	-12455
▁relaxed	-12456
▁tenable	-12457
▁becoming	-12458
▁glimpses	-12459
▁headache	-12460
▁operatic	-12461
▁pestered	-12462
▁reproach	-12463
▁souvenir	-12464
▁sullenly	-12465
▁sundials	-12466
▁sunshine	-12467
▁supplied	-12468
▁supplier	-12469
▁supposed	-12470
▁surveyed	-12471
▁survived	-12472
▁swimming	-12473
▁tailless	-12474
▁tangible	-12475
▁tattooed	-12476
▁terraced	-12477
▁thanking	-12478
▁theorise	-12479
▁thinness	-12480
▁threaten	-12481
▁thudding	-12482
▁timbered	-12483
▁tortured	-12484
▁touching	-12485
▁transmit	-12486
▁twilight	-12487
▁ugliness	-12488
▁ultimate	-12489
▁unburned	-12490
▁uncommon	-12491
▁unfenced	-12492
▁ungovern	-12493
▁unheeded	-12494
▁unmistak	-12495
▁unpreced	-12496
▁unsolved	-12497
▁untimely	-12498
▁upraised	-12499
tr	-12500
xi	-12501
Ges	-12502
Jem	-12503
flo	-12504
mne	-12505
moy	-12506
▁9,	-12507
▁Eg	-12508
▁IF	-12509
Omne	-12510
alay	-12511
umps	-12512
xiom	-12513
▁4.’	-12514
▁Lip	-12515
▁Uff	-12516
▁vir	-12517
▁vit	-12518
▁vor	-12519
akage	-12520
aland	-12521
enner	-12522
erner	-12523
floor	-12524
hound	-12525
istan	-12526
nless	-12527
sweet	-12528
uling	-12529
unior	-12530
▁750.	-12531
▁Amoy	-12532
▁Balz	-12533
▁Egri	-12534
▁Prim	-12535
▁Uffa	-12536
▁Vere	-12537
▁butc	-12538
▁dott	-12539
▁fowl	-12540
▁pays	-12541
▁slop	-12542
▁span	-12543
Unless	-12544
areham	-12545
ealand	-12546
lipped	-12547
▁200?’	-12548
▁Egria	-12549
▁Malay	-12550
▁Prima	-12551
▁axiom	-12552
▁bodes	-12553
▁comic	-12554
▁heell	-12555
▁scale	-12556
▁valid	-12557
▁virus	-12558
▁vitri	-12559
Someone	-12560
Zealand	-12561
aration	-12562
trimmed	-12563
▁Balzac	-12564
▁Venner	-12565
▁clumps	-12566
▁junior	-12567
▁notion	-12568
ouraging	-12569
▁Britain	-12570
▁Contact	-12571
▁Fareham	-12572
▁Tuesday	-12573
▁Zealand	-12574
▁bustled	-12575
▁butcher	-12576
▁clasped	-12577
▁dottles	-12578
▁hauling	-12579
▁leakage	-12580
▁moodily	-12581
▁sterner	-12582
▁thumped	-12583
▁vitriol	-12584
ompliance	-12585
▁eclipses	-12586
▁emotions	-12587
▁heelless	-12588
▁nautical	-12589
▁neatness	-12590
▁panelled	-12591
▁repartee	-12592
▁squander	-12593
▁typewrit	-12594
▁uttering	-12595
▁vacantly	-12596
▁vanishes	-12597
▁venomous	-12598
▁verbatim	-12599
1,	-12600
rs	-12601
—!	-12602
’,	-12603
Des	-12604
_.’	-12605
era	-12606
nsw	-12607
Done	-12608
Gone	-12609
gone	-12610
mind	-12611
rack	-12612
wind	-12613
▁Heh	-12614
▁dug	-12615
0,000	-12616
amera	-12617
arise	-12618
dozen	-12619
oding	-12620
opers	-12621
stall	-12622
▁Left	-12623
▁Pers	-12624
▁Sand	-12625
▁Wall	-12626
▁bond	-12627
▁dint	-12628
▁kill	-12629
▁outc	-12630
▁pitt	-12631
▁stab	-12632
▁whoa	-12633
Coarse	-12634
Desert	-12635
itical	-12636
minded	-12637
ottish	-12638
window	-12639
▁2001,	-12640
▁Arnsw	-12641
▁Early	-12642
▁Paris	-12643
▁Which	-12644
▁hound	-12645
▁kicks	-12646
▁manor	-12647
▁newer	-12648
▁silly	-12649
ilities	-12650
▁50,000	-12651
▁Wallen	-12652
▁barrel	-12653
▁camera	-12654
▁curves	-12655
▁lenses	-12656
▁outcry	-12657
▁rueful	-12658
▁theore	-12659
▁worker	-12660
Deserted	-12661
danseuse	-12662
stalling	-12663
▁Jackson	-12664
▁Persian	-12665
▁killing	-12666
▁mopping	-12667
▁pathway	-12668
▁privacy	-12669
▁scratch	-12670
▁sloping	-12671
▁sottish	-12672
▁stabbed	-12673
▁Together	-12674
▁absorbed	-12675
▁admirers	-12676
▁childish	-12677
▁convince	-12678
▁critical	-12679
▁encoding	-12680
▁fanciful	-12681
▁pittance	-12682
▁suggests	-12683
▁troopers	-12684
▁unpacked	-12685
▁villains	-12686
▁villainy	-12687
▁violates	-12688
▁vouching	-12689
▁waddling	-12690
▁wallowed	-12691
▁wavering	-12692
▁weighing	-12693
▁westward	-12694
▁wherever	-12695
▁whishing	-12696
▁wondered	-12697
▁wriggled	-12698
Australian	-12699
Eg	-12700
cou	-12701
ilà	-12702
rab	-12703
▁“7	-12704
Five	-12705
Pall	-12706
anes	-12707
coun	-12708
fain	-12709
ilor	-12710
ilot	-12711
oilà	-12712
tero	-12713
▁Sal	-12714
▁ais	-12715
▁bay	-12716
▁plo	-12717
Eight	-12718
Right	-12719
Voilà	-12720
allow	-12721
hames	-12722
ights	-12723
sight	-12724
ubtle	-12725
▁Arab	-12726
▁Salt	-12727
▁acet	-12728
▁beam	-12729
▁fess	-12730
▁lank	-12731
▁pist	-12732
▁rept	-12733
Subtle	-12734
aining	-12735
hering	-12736
ouched	-12737
teroom	-12738
xander	-12739
▁aisle	-12740
▁boxer	-12741
▁cheap	-12742
▁crony	-12743
▁frown	-12744
▁idiot	-12745
▁lanes	-12746
▁ornam	-12747
▁pilot	-12748
▁sable	-12749
formist	-12750
▁Nights	-12751
▁Rather	-12752
▁Thames	-12753
▁baying	-12754
▁piston	-12755
▁plover	-12756
▁sailor	-12757
▁skirts	-12758
▁weaver	-12759
fainting	-12760
lexander	-12761
▁Arabian	-12762
▁Honoria	-12763
▁Suppose	-12764
▁classes	-12765
▁reptile	-12766
▁slumber	-12767
▁throats	-12768
▁wreaths	-12769
unificent	-12770
▁Etherege	-12771
▁acetones	-12772
▁anteroom	-12773
▁cobwebby	-12774
▁crouched	-12775
▁frowning	-12776
▁secretly	-12777
▁sleepily	-12778
▁ushering	-12779
▁variable	-12780
▁visiting	-12781
▁whirling	-12782
Experience	-12783
Frequently	-12784
Incredible	-12785
Photograph	-12786
Remarkable	-12787
SEQUENTIAL	-12788
acquainted	-12789
countryman	-12790
drochloric	-12791
dénouement	-12792
ensibility	-12793
entonville	-12794
frightened	-12795
ionalities	-12796
remembered	-12797
sequential	-12798
▁AGREEMENT	-12799
-8	-12800
Up	-12801
Don	-12802
_?”	-12803
cks	-12804
dri	-12805
lad	-12806
rap	-12807
too	-12808
urf	-12809
▁17	-12810
▁Bl	-12811
Upon	-12812
aits	-12813
bull	-12814
cing	-12815
felt	-12816
lose	-12817
lust	-12818
trap	-12819
▁Air	-12820
▁haw	-12821
▁shy	-12822
arter	-12823
inous	-12824
laden	-12825
ribed	-12826
▁Blue	-12827
▁Hood	-12828
▁Must	-12829
▁arch	-12830
▁duke	-12831
▁fade	-12832
▁foil	-12833
▁hawk	-12834
▁myth	-12835
▁ordn	-12836
▁shim	-12837
▁snug	-12838
▁swag	-12839
▁turf	-12840
driver	-12841
lustre	-12842
▁Close	-12843
▁admin	-12844
▁atone	-12845
▁baits	-12846
▁purve	-12847
▁slits	-12848
▁socks	-12849
▁teach	-12850
▁topic	-12851
▁wheal	-12852
Missing	-12853
anguage	-12854
▁attack	-12855
▁doubly	-12856
▁guinea	-12857
▁nation	-12858
▁purvey	-12859
▁warned	-12860
▁Charles	-12861
▁deposes	-12862
▁glaring	-12863
▁heinous	-12864
▁overdid	-12865
▁placing	-12866
▁shimmer	-12867
▁smarter	-12868
▁Language	-12869
▁Ordering	-12870
▁crocuses	-12871
▁ordnance	-12872
▁purveyor	-12873
▁slighted	-12874
▁specious	-12875
▁Aldershot	-12876
▁Americans	-12877
▁Artillery	-12878
▁Augustine	-12879
▁Birchmoor	-12880
▁CARBUNCLE	-12881
▁Carbuncle	-12882
▁Carolinas	-12883
▁Chronicle	-12884
▁Contralto	-12885
▁Copyright	-12886
▁DISSOLVED	-12887
▁Everybody	-12888
▁Evidently	-12889
▁Farintosh	-12890
▁Farmhouse	-12891
▁Freemason	-12892
▁Gazetteer	-12893
▁Greenwich	-12894
▁INCLUDING	-12895
▁INDEMNITY	-12896
▁LIABILITY	-12897
▁Londoners	-12898
▁Louisiana	-12899
7.	-12900
87.	-12901
Has	-12902
fir	-12903
irs	-12904
▁MA	-12905
Pink	-12906
cont	-12907
cted	-12908
herd	-12909
▁MAN	-12910
▁cir	-12911
▁mel	-12912
▁sex	-12913
Would	-12914
first	-12915
mills	-12916
pherd	-12917
rocer	-12918
▁Hill	-12919
▁Jane	-12920
▁cage	-12921
▁clen	-12922
▁hail	-12923
▁loaf	-12924
▁nest	-12925
▁poky	-12926
▁rapt	-12927
▁seam	-12928
▁sewn	-12929
▁unse	-12930
▁wigs	-12931
itably	-12932
▁adder	-12933
▁heirs	-12934
▁kings	-12935
▁melon	-12936
▁plaid	-12937
▁vigil	-12938
contact	-12939
omising	-12940
▁Author	-12941
▁Surely	-12942
▁arrows	-12943
▁astron	-12944
▁beamed	-12945
▁boyish	-12946
▁circul	-12947
▁dipped	-12948
▁intend	-12949
▁overjo	-12950
▁prying	-12951
▁purses	-12952
▁rumour	-12953
▁seaman	-12954
▁unseat	-12955
▁worlds	-12956
imitably	-12957
ingering	-12958
nurtured	-12959
ulations	-12960
▁Russell	-12961
▁carpets	-12962
▁charred	-12963
▁combine	-12964
▁looming	-12965
▁maximum	-12966
▁prefers	-12967
▁studies	-12968
▁triumph	-12969
▁Anderson	-12970
▁cheating	-12971
▁clenched	-12972
▁loathing	-12973
▁meetings	-12974
▁multiply	-12975
▁shepherd	-12976
roprietary	-12977
▁596-1887.	-12978
▁Carefully	-12979
▁Mauritius	-12980
▁McFarlane	-12981
▁Melbourne	-12982
▁Mendicant	-12983
▁Middlesex	-12984
▁PARAGRAPH	-12985
▁Patersons	-12986
▁Petrified	-12987
▁Portsdown	-12988
▁Principal	-12989
▁Professor	-12990
▁Rotterdam	-12991
▁Secretary	-12992
▁September	-12993
▁Sigismond	-12994
▁Something	-12995
▁Supposing	-12996
▁TRADEMARK	-12997
▁Telegraph	-12998
▁Tennessee	-12999
42	-13000
ca	-13001
’-	-13002
.’;	-13003
421	-13004
Bes	-13005
Mar	-13006
bad	-13007
cel	-13008
rod	-13009
tal	-13010
œur	-13011
adic	-13012
half	-13013
nigh	-13014
ntil	-13015
oled	-13016
roic	-13017
—421	-13018
▁Ref	-13019
▁nur	-13020
▁phe	-13021
▁tid	-13022
quant	-13023
▁Step	-13024
▁cake	-13025
▁cœur	-13026
▁heed	-13027
▁rect	-13028
▁ruby	-13029
▁tidy	-13030
▁tray	-13031
▁vary	-13032
Better	-13033
causes	-13034
oradic	-13035
outhed	-13036
▁Until	-13037
▁crude	-13038
▁faddy	-13039
▁gruff	-13040
▁nurse	-13041
▁straw	-13042
▁total	-13043
Besides	-13044
Married	-13045
mouthed	-13046
▁Refund	-13047
▁booted	-13048
▁finish	-13049
▁heroic	-13050
▁incarn	-13051
▁parcel	-13052
▁sleuth	-13053
Murdered	-13054
▁Company	-13055
▁benevol	-13056
▁conclud	-13057
▁hansoms	-13058
▁lodging	-13059
▁meeting	-13060
▁peasant	-13061
▁peeling	-13062
▁piquant	-13063
▁rectify	-13064
▁shoving	-13065
▁springs	-13066
▁Carlsbad	-13067
▁Montague	-13068
▁PUNITIVE	-13069
▁SPECKLED	-13070
▁accessed	-13071
▁consoled	-13072
▁eighteen	-13073
▁forgiven	-13074
▁includes	-13075
▁musician	-13076
▁obsolete	-13077
▁pheasant	-13078
▁silvered	-13079
▁sporadic	-13080
▁sunburnt	-13081
▁welcomed	-13082
▁writings	-13083
▁Tottering	-13084
▁Trafalgar	-13085
▁Warburton	-13086
▁Westphail	-13087
▁abhorrent	-13088
▁absorbing	-13089
▁accepting	-13090
▁accessory	-13091
▁accidents	-13092
▁accompany	-13093
▁acquiesce	-13094
▁acquitted	-13095
▁addresses	-13096
▁adjective	-13097
▁advancing	-13098
▁affecting	-13099
né	-13100
Nay	-13101
Six	-13102
Yet	-13103
_.”	-13104
née	-13105
sea	-13106
yet	-13107
cell	-13108
enth	-13109
four	-13110
town	-13111
▁LIP	-13112
▁Wom	-13113
▁jot	-13114
cases	-13115
▁READ	-13116
▁fogs	-13117
▁herd	-13118
▁hiss	-13119
▁leaf	-13120
▁lent	-13121
▁shan	-13122
▁sour	-13123
Headed	-13124
cellar	-13125
▁Women	-13126
▁bowls	-13127
▁label	-13128
▁latch	-13129
▁swish	-13130
▁Harley	-13131
▁VALLEY	-13132
▁Wilton	-13133
▁ceases	-13134
▁cinder	-13135
▁couldn	-13136
▁curses	-13137
▁derive	-13138
▁dispat	-13139
▁docket	-13140
▁frosty	-13141
▁briefly	-13142
▁caution	-13143
▁clinked	-13144
▁counsel	-13145
▁daubing	-13146
▁dispose	-13147
▁drawled	-13148
▁leaking	-13149
▁loafing	-13150
▁sixteen	-13151
▁winking	-13152
▁ANYTHING	-13153
▁Identity	-13154
▁doubting	-13155
▁dwelling	-13156
▁propound	-13157
▁rapidity	-13158
▁restrain	-13159
▁scribble	-13160
▁unopened	-13161
répertoire	-13162
▁Character	-13163
▁DONATIONS	-13164
▁Frenchman	-13165
▁allusions	-13166
▁alternate	-13167
▁amazement	-13168
▁ambitious	-13169
▁ancestral	-13170
▁anonymous	-13171
▁anxiously	-13172
▁apologise	-13173
▁applicant	-13174
▁arguments	-13175
▁armchairs	-13176
▁arresting	-13177
▁assaulted	-13178
▁assertion	-13179
▁assurance	-13180
▁assuredly	-13181
▁astrakhan	-13182
▁astronomy	-13183
▁authority	-13184
▁bachelors	-13185
▁barricade	-13186
▁basketful	-13187
▁beggarman	-13188
▁believing	-13189
▁betraying	-13190
▁betrothal	-13191
▁bicycling	-13192
▁billycock	-13193
▁biography	-13194
▁blockaded	-13195
▁bracelets	-13196
▁breastpin	-13197
▁buildings	-13198
▁burnished	-13199
).”	-13200
bag	-13201
gly	-13202
sir	-13203
sto	-13204
▁31	-13205
▁aj	-13206
▁“9	-13207
kles	-13208
lean	-13209
made	-13210
orch	-13211
pray	-13212
▁CON	-13213
▁fid	-13214
▁gin	-13215
boats	-13216
clean	-13217
geted	-13218
soled	-13219
stock	-13220
▁1500	-13221
▁Also	-13222
▁Hold	-13223
▁ajar	-13224
▁bean	-13225
▁bend	-13226
▁bloc	-13227
▁dawn	-13228
▁hill	-13229
▁hoax	-13230
▁lets	-13231
▁tawn	-13232
▁ugly	-13233
Always	-13234
▁OTHER	-13235
▁chose	-13236
▁gritt	-13237
▁india	-13238
▁porch	-13239
▁prick	-13240
▁sheep	-13241
▁tawny	-13242
▁tells	-13243
▁toast	-13244
▁whine	-13245
forever	-13246
▁Father	-13247
▁WILSON	-13248
▁ankles	-13249
▁anyhow	-13250
▁caress	-13251
▁clears	-13252
▁evolve	-13253
▁gritty	-13254
▁marshy	-13255
▁refine	-13256
▁suppli	-13257
▁weekly	-13258
▁Putting	-13259
▁Wedding	-13260
▁feigned	-13261
▁lecture	-13262
▁madness	-13263
▁poultry	-13264
▁somehow	-13265
▁tumbled	-13266
▁uncouth	-13267
▁Goodwins	-13268
▁Striding	-13269
▁brickish	-13270
▁broadest	-13271
▁fidgeted	-13272
▁graceful	-13273
▁indulged	-13274
▁lethargy	-13275
▁planking	-13276
▁promptly	-13277
rincomalee	-13278
▁Alexander	-13279
▁Naturally	-13280
▁candidate	-13281
▁carpenter	-13282
▁cathedral	-13283
▁ceaseless	-13284
▁chagrined	-13285
▁charities	-13286
▁checkmate	-13287
▁cheerless	-13288
▁chemistry	-13289
▁chuckling	-13290
▁civilised	-13291
▁clambered	-13292
▁clutching	-13293
▁collected	-13294
▁comforted	-13295
▁community	-13296
▁commuting	-13297
▁companies	-13298
▁compasses	-13299
Won	-13300
was	-13301
▁19	-13302
aten	-13303
dest	-13304
ingy	-13305
west	-13306
arded	-13307
eaten	-13308
grain	-13309
▁Case	-13310
▁Half	-13311
▁Head	-13312
▁Made	-13313
▁Over	-13314
▁Thus	-13315
▁hers	-13316
▁ruse	-13317
▁vote	-13318
▁worm	-13319
erkily	-13320
zarded	-13321
▁Clark	-13322
▁SIMON	-13323
▁Their	-13324
▁beget	-13325
▁depot	-13326
▁dingy	-13327
▁hobby	-13328
▁moods	-13329
▁rouse	-13330
▁slice	-13331
▁tying	-13332
▁types	-13333
litting	-13334
▁Seldom	-13335
▁commit	-13336
▁counts	-13337
▁misses	-13338
▁plunge	-13339
▁puzzle	-13340
▁vestry	-13341
breasted	-13342
ongenial	-13343
slitting	-13344
▁Release	-13345
▁attired	-13346
▁coiners	-13347
▁estates	-13348
▁flaring	-13349
▁heather	-13350
▁horrors	-13351
▁jerkily	-13352
▁lighten	-13353
▁ostrich	-13354
▁rearing	-13355
▁saddest	-13356
▁shelter	-13357
▁sighing	-13358
▁swelled	-13359
▁version	-13360
factories	-13361
▁Charming	-13362
▁Counties	-13363
▁REMEDIES	-13364
▁allowing	-13365
▁cumbrous	-13366
▁destined	-13367
▁draughts	-13368
▁excluded	-13369
▁hazarded	-13370
▁jeweller	-13371
▁kneeling	-13372
▁manifold	-13373
▁ploughed	-13374
▁sardonic	-13375
▁shuffled	-13376
▁slovenly	-13377
▁Stevenson	-13378
▁additions	-13379
▁conceives	-13380
▁concisely	-13381
▁condemned	-13382
▁conducted	-13383
▁confining	-13384
▁congenial	-13385
▁consuming	-13386
▁continues	-13387
▁convulsed	-13388
▁cordially	-13389
▁correctly	-13390
▁corridors	-13391
▁creatures	-13392
▁cudgelled	-13393
▁currently	-13394
▁cushioned	-13395
▁customary	-13396
▁daintiest	-13397
▁deathbeds	-13398
▁deception	-13399
PS	-13400
TO	-13401
ât	-13402
IPS	-13403
had	-13404
pât	-13405
▁IS	-13406
▁Wr	-13407
▁ft	-13408
▁’7	-13409
▁“’	-13410
Dark	-13411
Fine	-13412
More	-13413
Next	-13414
ants	-13415
erie	-13416
fait	-13417
girt	-13418
home	-13419
iten	-13420
pera	-13421
pâté	-13422
▁Ned	-13423
▁apt	-13424
▁fed	-13425
▁“12	-13426
boots	-13427
oties	-13428
▁CASE	-13429
▁Date	-13430
▁PIPS	-13431
▁Were	-13432
▁dine	-13433
▁foie	-13434
▁gash	-13435
▁pens	-13436
▁role	-13437
▁slab	-13438
▁’77,	-13439
Bought	-13440
▁Opera	-13441
▁beryl	-13442
▁blond	-13443
▁cured	-13444
▁eerie	-13445
▁facet	-13446
▁flood	-13447
▁madly	-13448
▁renew	-13449
▁blonde	-13450
▁midday	-13451
▁nobody	-13452
▁solely	-13453
▁tassel	-13454
▁topped	-13455
▁whiten	-13456
▁Because	-13457
▁Written	-13458
▁bounded	-13459
▁catlike	-13460
▁cravats	-13461
▁dooties	-13462
▁flatter	-13463
▁grieved	-13464
▁lurched	-13465
▁network	-13466
▁notable	-13467
▁refined	-13468
▁refrain	-13469
▁stretch	-13470
▁unkempt	-13471
▁washing	-13472
Extremely	-13473
Farintosh	-13474
▁beauties	-13475
▁counties	-13476
▁darkened	-13477
▁intruder	-13478
▁masterly	-13479
▁minister	-13480
▁pondered	-13481
▁receipts	-13482
▁smarting	-13483
▁studying	-13484
▁sunlight	-13485
Indirectly	-13486
▁Pritchard	-13487
▁assembled	-13488
▁deceptive	-13489
▁deductive	-13490
▁defending	-13491
▁defiantly	-13492
▁deletions	-13493
▁demeanour	-13494
▁dependent	-13495
▁depressed	-13496
▁describes	-13497
▁deserting	-13498
▁despaired	-13499
!)	-13500
3)	-13501
—£	-13502
(3)	-13503
Sir	-13504
_!”	-13505
yes	-13506
—!”	-13507
▁1_	-13508
▁ay	-13509
▁“4	-13510
)(3)	-13511
Save	-13512
leaf	-13513
anded	-13514
going	-13515
▁Bill	-13516
▁HAVE	-13517
▁Poor	-13518
▁lace	-13519
▁lure	-13520
▁reed	-13521
Beyond	-13522
castle	-13523
sponge	-13524
▁BERYL	-13525
▁astir	-13526
▁carts	-13527
▁grind	-13528
▁noose	-13529
▁ruddy	-13530
▁stagg	-13531
▁token	-13532
▁Anyhow	-13533
▁Joseph	-13534
▁aright	-13535
▁career	-13536
▁clumsy	-13537
▁darted	-13538
▁gushes	-13539
▁kicked	-13540
▁outset	-13541
▁railed	-13542
purposes	-13543
▁actress	-13544
▁crisply	-13545
▁forearm	-13546
▁hardest	-13547
▁jerking	-13548
▁patches	-13549
▁planted	-13550
▁rounded	-13551
▁stalked	-13552
▁tempted	-13553
▁tunnels	-13554
▁choosing	-13555
▁creeping	-13556
▁intently	-13557
▁occurren	-13558
▁profited	-13559
▁rascally	-13560
▁remanded	-13561
▁scheming	-13562
▁steadily	-13563
▁throbbed	-13564
▁appearing	-13565
▁claspings	-13566
▁consented	-13567
▁decorated	-13568
▁destitute	-13569
▁desultory	-13570
▁detailing	-13571
▁detracted	-13572
▁digesting	-13573
▁diligence	-13574
▁discloses	-13575
▁discontin	-13576
▁disguised	-13577
▁disguises	-13578
▁dismissed	-13579
▁dissolute	-13580
▁distorted	-13581
▁diversity	-13582
▁dizziness	-13583
▁docketing	-13584
▁doddering	-13585
▁duplicate	-13586
▁effective	-13587
▁elemental	-13588
▁elsewhere	-13589
▁emigrated	-13590
▁employees	-13591
▁encompass	-13592
▁encourage	-13593
▁endeavour	-13594
▁engineers	-13595
▁entreated	-13596
▁enwrapped	-13597
▁epicurean	-13598
▁erroneous	-13599
):	-13600
Ku	-13601
_—	-13602
Can	-13603
Ech	-13604
pel	-13605
Echo	-13606
Walk	-13607
tree	-13608
▁700	-13609
▁Ast	-13610
▁“‘_	-13611
quite	-13612
would	-13613
▁Gang	-13614
▁Near	-13615
▁Whom	-13616
▁area	-13617
▁dirt	-13618
▁salt	-13619
ipping	-13620
please	-13621
▁1890.	-13622
▁alert	-13623
▁bulge	-13624
▁curly	-13625
▁enjoy	-13626
▁faces	-13627
▁hover	-13628
▁spies	-13629
▁tinge	-13630
▁weird	-13631
license	-13632
▁adding	-13633
▁binary	-13634
▁bolted	-13635
▁breaks	-13636
▁bullet	-13637
▁casket	-13638
▁dispel	-13639
▁heated	-13640
▁layers	-13641
▁leaped	-13642
▁mental	-13643
▁pained	-13644
▁relate	-13645
▁waters	-13646
▁Therein	-13647
▁askance	-13648
▁descent	-13649
▁frogged	-13650
▁keyhole	-13651
▁lasting	-13652
▁lengths	-13653
▁trumpet	-13654
▁unappro	-13655
▁untamed	-13656
▁Describe	-13657
▁Eglonitz	-13658
▁Lordship	-13659
▁Shipping	-13660
▁admitted	-13661
▁ambition	-13662
▁chatting	-13663
▁consults	-13664
▁donation	-13665
▁emigrant	-13666
▁feelings	-13667
▁gleaming	-13668
▁inferred	-13669
▁recourse	-13670
▁sandwich	-13671
▁subsided	-13672
▁calculate	-13673
▁countries	-13674
▁everybody	-13675
▁exactness	-13676
▁excessive	-13677
▁excitable	-13678
▁excitedly	-13679
▁excursion	-13680
▁execution	-13681
▁exhibited	-13682
▁expecting	-13683
▁exporting	-13684
▁expressly	-13685
▁exquisite	-13686
▁extremity	-13687
▁fasteners	-13688
▁fastening	-13689
▁ferocious	-13690
▁financial	-13691
▁firelight	-13692
▁foolishly	-13693
▁forbidden	-13694
▁foreigner	-13695
▁forwarded	-13696
▁framework	-13697
▁franchise	-13698
▁frightful	-13699
Dr	-13700
▁9	-13701
oir	-13702
▁“_	-13703
mong	-13704
▁Set	-13705
▁heh	-13706
▁ice	-13707
Could	-13708
Found	-13709
Grave	-13710
attic	-13711
death	-13712
mines	-13713
sweep	-13714
▁alas	-13715
▁asks	-13716
▁disk	-13717
▁opal	-13718
▁puny	-13719
▁tink	-13720
Except	-13721
leaves	-13722
monger	-13723
▁Finns	-13724
▁cargo	-13725
▁email	-13726
▁fifth	-13727
▁fools	-13728
▁girls	-13729
▁shops	-13730
▁sport	-13731
▁towns	-13732
▁weave	-13733
▁worms	-13734
General	-13735
engines	-13736
flagged	-13737
▁bloody	-13738
▁chains	-13739
▁loosed	-13740
▁memoir	-13741
▁oldest	-13742
▁sequel	-13743
▁socket	-13744
▁speedy	-13745
▁tinker	-13746
Theories	-13747
actually	-13748
readable	-13749
speaking	-13750
▁changes	-13751
▁chatted	-13752
▁coolest	-13753
▁dealing	-13754
▁helping	-13755
▁howling	-13756
▁kindled	-13757
▁murders	-13758
▁seventy	-13759
▁wayward	-13760
commander	-13761
incognito	-13762
▁bandages	-13763
▁diabetes	-13764
▁invaders	-13765
▁motioned	-13766
▁passions	-13767
▁preceded	-13768
▁wasteful	-13769
▁windfall	-13770
handedness	-13771
▁Arnsworth	-13772
▁centuries	-13773
▁comparing	-13774
▁fruitless	-13775
▁fugitives	-13776
▁fulfilled	-13777
▁geniality	-13778
▁gossiping	-13779
▁gratitude	-13780
▁greatcoat	-13781
▁grievance	-13782
▁grotesque	-13783
▁guttering	-13784
▁handcuffs	-13785
▁happening	-13786
▁hardihood	-13787
▁harmonium	-13788
▁heartless	-13789
▁hindrance	-13790
▁housemaid	-13791
▁hypertext	-13792
▁identical	-13793
▁illegally	-13794
▁impending	-13795
▁impetuous	-13796
▁imploring	-13797
▁improving	-13798
▁incarnate	-13799
’:	-13800
sent	-13801
▁god	-13802
▁ray	-13803
▁Mall	-13804
▁More	-13805
▁lord	-13806
▁pets	-13807
▁Quick	-13808
▁grime	-13809
Between	-13810
▁absent	-13811
▁planet	-13812
Sherlock	-13813
▁Morning	-13814
▁charity	-13815
▁moonless	-13816
▁stumbled	-13817
▁caressing	-13818
▁furnishes	-13819
▁importers	-13820
▁inception	-13821
▁indemnify	-13822
▁inference	-13823
▁infirmity	-13824
▁informing	-13825
▁ingenuity	-13826
▁injustice	-13827
▁inquiring	-13828
▁insolence	-13829
▁inspiring	-13830
▁intensity	-13831
▁intricate	-13832
▁intruding	-13833
▁invention	-13834
▁inviolate	-13835
▁isolation	-13836
▁jealously	-13837
▁jewellery	-13838
▁journeyed	-13839
▁justified	-13840
▁landscape	-13841
▁lassitude	-13842
▁liberated	-13843
▁liberties	-13844
▁libraries	-13845
▁lightened	-13846
▁lightning	-13847
▁lingering	-13848
▁loathsome	-13849
▁locations	-13850
▁loitering	-13851
▁lucrative	-13852
▁luxuriant	-13853
▁luxurious	-13854
▁magnifico	-13855
▁malignant	-13856
▁martyrdom	-13857
▁masculine	-13858
▁meanwhile	-13859
▁memoranda	-13860
▁messenger	-13861
▁miniature	-13862
▁mischance	-13863
▁misjudged	-13864
▁moistened	-13865
▁mountains	-13866
▁murderers	-13867
▁murdering	-13868
▁necessity	-13869
▁nervously	-13870
▁nonentity	-13871
▁notepaper	-13872
▁notorious	-13873
▁obedience	-13874
▁obstinacy	-13875
▁occipital	-13876
▁offensive	-13877
▁officials	-13878
▁oppressed	-13879
▁organized	-13880
▁ornaments	-13881
▁orphanage	-13882
▁outbreaks	-13883
▁outbursts	-13884
▁overjoyed	-13885
▁oversight	-13886
▁overtaken	-13887
▁padlocked	-13888
▁painfully	-13889
▁panelling	-13890
▁paperwork	-13891
▁paramount	-13892
▁parsonage	-13893
▁partially	-13894
▁passenger	-13895
▁perceived	-13896
▁performer	-13897
▁perplexed	-13898
▁personate	-13899
▁perspired	-13900
▁pestering	-13901
▁petulance	-13902
▁pikestaff	-13903
▁pinnacles	-13904
▁plannings	-13905
▁plausible	-13906
▁plentiful	-13907
▁poisoning	-13908
▁pomposity	-13909
▁ponderous	-13910
▁positions	-13911
▁posterior	-13912
▁postmarks	-13913
▁precursor	-13914
▁prejudice	-13915
▁premature	-13916
▁preparing	-13917
▁preserved	-13918
▁preserves	-13919
▁presuming	-13920
▁pretended	-13921
▁principle	-13922
▁processes	-13923
▁producing	-13924
▁programme	-13925
▁promising	-13926
▁promotion	-13927
▁proofread	-13928
▁provinces	-13929
▁punctures	-13930
▁qualities	-13931
▁quavering	-13932
▁quivering	-13933
▁ramblings	-13934
▁realistic	-13935
▁reception	-13936
▁refreshed	-13937
▁registers	-13938
▁relapsing	-13939
▁reopening	-13940
▁reporting	-13941
▁repugnant	-13942
▁repulsion	-13943
▁requested	-13944
▁resounded	-13945
▁responses	-13946
▁revealing	-13947
▁revellers	-13948
▁sacrifice	-13949
▁safeguard	-13950
▁saturated	-13951
▁scribbled	-13952
▁secretary	-13953
▁secreting	-13954
▁secretive	-13955
▁sedentary	-13956
▁selection	-13957
▁sensation	-13958
▁sensitive	-13959
▁servitude	-13960
▁seventeen	-13961
▁sharpened	-13962
▁shipwreck	-13963
▁shivering	-13964
▁shuddered	-13965
▁signalled	-13966
▁sleepless	-13967
▁smokeless	-13968
▁smoothing	-13969
▁solicitor	-13970
▁spattered	-13971
▁splashing	-13972
▁splendour	-13973
▁spreading	-13974
▁startling	-13975
▁stevedore	-13976
▁stiffness	-13977
▁stimulant	-13978
▁straining	-13979
▁strangest	-13980
▁streaming	-13981
▁stupidity	-13982
▁subjected	-13983
▁subscribe	-13984
▁successes	-13985
▁suffering	-13986
▁summarily	-13987
▁summarise	-13988
▁summonses	-13989
▁suppliers	-13990
▁surpliced	-13991
▁surrounds	-13992
▁suspended	-13993
▁sweetness	-13994
▁swordsman	-13995
▁syllables	-13996
▁synthesis	-13997
▁technical	-13998
▁telephone	-13999
▁temperate	-14000
▁tenacious	-14001
▁	-14002
e	-14003
t	-14004
a	-14005
o	-14006
n	-14007
h	-14008
i	-14009
s	-14010
r	-14011
d	-14012
l	-14013
u	-14014
m	-14015
w	-14016
c	-14017
y	-14018
f	-14019
g	-14020
,	-14021
p	-14022
.	-14023
b	-14024
v	-14025
I	-14026
k	-14027
“	-14028
”	-14029
T	-14030
H	-14031
’	-14032
S	-14033
A	-14034
M	-14035
W	-14036
-	-14037
?	-14038
x	-14039
B	-14040
Y	-14041
‘	-14042
j	-14043
q	-14044
O	-14045
C	-14046
N	-14047
!	-14048
L	-14049
E	-14050
P	-14051
R	-14052
G	-14053
D	-14054
F	-14055
;	-14056
—	-14057
z	-14058
_	-14059
1	-14060
J	-14061
0	-14062
U	-14063
V	-14064
K	-14065
:	-14066
2	-14067
8	-14068
£	-14069
4	-14070
3	-14071
5	-14072
6	-14073
(	-14074
)	-14075
7	-14076
9	-14077
Q	-14078
*	-14079
é	-14080
X	-14081
&	-14082
/	-14083
æ	-14084
•	-14085
$	-14086
Z	-14087
[	-14088
]	-14089
œ	-14090
#	-14091
%	-14092
à	-14093
â	-14094
è	-14095
⁄	-14096
